{
  "version": "1.0",
  "truncation": null,
  "padding": null,
  "added_tokens": [
    {
      "id": 0,
      "content": "<|endoftext|>",
      "single_word": false,
      "lstrip": false,
      "rstrip": false,
      "normalized": false,
      "special": true
    },
    {
      "id": 1,
      "content": "<|im_start|>",
      "single_word": false,
      "lstrip": false,
      "rstrip": false,
      "normalized": false,
      "special": true
    },
    {
      "id": 2,
      "content": "<|im_end|>",
      "single_word": false,
      "lstrip": false,
      "rstrip": false,
      "normalized": false,
      "special": true
    },
    {
      "id": 32000,
      "content": "<|image|>",
      "single_word": false,
      "lstrip": false,
      "rstrip": false,
      "normalized": false,
      "special": true
    }
  ],
  "normalizer": null,
  "pre_tokenizer": {
    "type": "ByteLevel",
    "add_prefix_space": false,
    "trim_offsets": true,
    "use_regex": true
  },
  "post_processor": {
    "type": "TemplateProcessing",
    "single": [
      {
        "Sequence": {
          "id": "A",
          "type_id": 0
        }
      }
    ],
    "pair": [
      {
        "Sequence": {
          "id": "A",
          "type_id": 0
        }
      },
      {
        "Sequence": {
          "id": "B",
          "type_id": 1
        }
      }
    ],
    "special_tokens": {}
  },
  "decoder": {
    "type": "ByteLevel",
    "add_prefix_space": true,
    "trim_offsets": true,
    "use_regex": true
  },
  "model": {
    "type": "BPE",
    "dropout": null,
    "unk_token": null,
    "continuing_subword_prefix": null,
    "end_of_word_suffix": null,
    "fuse_unk": false,
    "byte_fallback": false,
    "ignore_merges": false,
    "vocab": {
      "<|endoftext|>": 0,
      "<|im_start|>": 1,
      "<|im_end|>": 2,
      "!": 3,
      "\"": 4,
      "#": 5,
      "$": 6,
      "%": 7,
      "&": 8,
      "'": 9,
      "(": 10,
      ")": 11,
      "*": 12,
      "+": 13,
      ",": 14,
      "-": 15,
      ".": 16,
      "/": 17,
      "0": 18,
      "1": 19,
      "2": 20,
      "3": 21,
      "4": 22,
      "5": 23,
      "6": 24,
      "7": 25,
      "8": 26,
      "9": 27,
      ":": 28,
      ";": 29,
      "<": 30,
      "=": 31,
      ">": 32,
      "?": 33,
      "@": 34,
      "A": 35,
      "B": 36,
      "C": 37,
      "D": 38,
      "E": 39,
      "F": 40,
      "G": 41,
      "H": 42,
      "I": 43,
      "J": 44,
      "K": 45,
      "L": 46,
      "M": 47,
      "N": 48,
      "O": 49,
      "P": 50,
      "Q": 51,
      "R": 52,
      "S": 53,
      "T": 54,
      "U": 55,
      "V": 56,
      "W": 57,
      "X": 58,
      "Y": 59,
      "Z": 60,
      "[": 61,
      "\\": 62,
      "]": 63,
      "^": 64,
      "_": 65,
      "`": 66,
      "a": 67,
      "b": 68,
      "c": 69,
      "d": 70,
      "e": 71,
      "f": 72,
      "g": 73,
      "h": 74,
      "i": 75,
      "j": 76,
      "k": 77,
      "l": 78,
      "m": 79,
      "n": 80,
      "o": 81,
      "p": 82,
      "q": 83,
      "r": 84,
      "s": 85,
      "t": 86,
      "u": 87,
      "v": 88,
      "w": 89,
      "x": 90,
      "y": 91,
      "z": 92,
      "{": 93,
      "|": 94,
      "}": 95,
      "~": 96,
      "¡": 97,
      "¢": 98,
      "£": 99,
      "¤": 100,
      "¥": 101,
      "¦": 102,
      "§": 103,
      "¨": 104,
      "©": 105,
      "ª": 106,
      "«": 107,
      "¬": 108,
      "®": 109,
      "¯": 110,
      "°": 111,
      "±": 112,
      "²": 113,
      "³": 114,
      "´": 115,
      "µ": 116,
      "¶": 117,
      "·": 118,
      "¸": 119,
      "¹": 120,
      "º": 121,
      "»": 122,
      "¼": 123,
      "½": 124,
      "¾": 125,
      "¿": 126,
      "Â": 127,
      "Ã": 128,
      "Ä": 129,
      "Å": 130,
      "Æ": 131,
      "Ç": 132,
      "È": 133,
      "É": 134,
      "Ê": 135,
      "Ë": 136,
      "Ì": 137,
      "Î": 138,
      "Ï": 139,
      "Ð": 140,
      "Ñ": 141,
      "Ò": 142,
      "Ó": 143,
      "Õ": 144,
      "Ö": 145,
      "×": 146,
      "Ø": 147,
      "Ù": 148,
      "Ú": 149,
      "Û": 150,
      "à": 151,
      "á": 152,
      "â": 153,
      "ã": 154,
      "ä": 155,
      "å": 156,
      "æ": 157,
      "ç": 158,
      "è": 159,
      "é": 160,
      "ê": 161,
      "ë": 162,
      "ì": 163,
      "í": 164,
      "î": 165,
      "ï": 166,
      "ð": 167,
      "Ă": 168,
      "ă": 169,
      "ą": 170,
      "Ć": 171,
      "ć": 172,
      "Ĉ": 173,
      "ĉ": 174,
      "Ċ": 175,
      "č": 176,
      "Ĕ": 177,
      "ě": 178,
      "Ĝ": 179,
      "ğ": 180,
      "Ġ": 181,
      "ġ": 182,
      "Ģ": 183,
      "ģ": 184,
      "Ĥ": 185,
      "ĥ": 186,
      "Ħ": 187,
      "ħ": 188,
      "Ĩ": 189,
      "ĩ": 190,
      "Ī": 191,
      "ī": 192,
      "Ĭ": 193,
      "ĭ": 194,
      "Į": 195,
      "į": 196,
      "İ": 197,
      "ı": 198,
      "Ĳ": 199,
      "ĳ": 200,
      "Ĵ": 201,
      "ĵ": 202,
      "Ķ": 203,
      "ķ": 204,
      "ĸ": 205,
      "Ĺ": 206,
      "ĺ": 207,
      "Ļ": 208,
      "ļ": 209,
      "Ľ": 210,
      "ľ": 211,
      "Ŀ": 212,
      "ŀ": 213,
      "Ł": 214,
      "ł": 215,
      "Ń": 216,
      "ä¸": 217,
      "ï¼": 218,
      "ï¼Į": 219,
      "çļ": 220,
      "çļĦ": 221,
      "ãĢ": 222,
      "ãĢĤ": 223,
      "ä»": 224,
      "äº": 225,
      "åı": 226,
      "æľ": 227,
      "åħ": 228,
      "è¿": 229,
      "æĺ": 230,
      "æĪ": 231,
      "è¯": 232,
      "ä¸Ģ": 233,
      "å¤": 234,
      "åĪ": 235,
      "ä½": 236,
      "çĶ": 237,
      "å®": 238,
      "æĸ": 239,
      "åľ": 240,
      "å°": 241,
      "åĲ": 242,
      "ä¸ª": 243,
      "åĴ": 244,
      "ç»": 245,
      "æĺ¯": 246,
      "åĴĮ": 247,
      "ä¹": 248,
      "åŃ": 249,
      "åĬ": 250,
      "ä»¥": 251,
      "ï¼ļ": 252,
      "ãĢģ": 253,
      "è®": 254,
      "åľ¨": 255,
      "æľī": 256,
      "æķ": 257,
      "æĪĳ": 258,
      "åĽ": 259,
      "æĹ": 260,
      "å¹": 261,
      "äºĨ": 262,
      "ä¸Ń": 263,
      "éĩ": 264,
      "åĩ": 265,
      "åı¯": 266,
      "æĿ": 267,
      "äºº": 268,
      "è¡": 269,
      "è¿Ļ": 270,
      "åº": 271,
      "ä¸º": 272,
      "å¸": 273,
      "éĢ": 274,
      "ĥ½": 275,
      "çī": 276,
      "é¢": 277,
      "æŀ": 278,
      "åį": 279,
      "æĸĩ": 280,
      "å¾": 281,
      "å¥": 282,
      "ä¼": 283,
      "æī": 284,
      "åĨ": 285,
      "æŃ": 286,
      "éĹ": 287,
      "âĢ": 288,
      "æł": 289,
      "è¦": 290,
      "ç§": 291,
      "å¼": 292,
      "çĶ¨": 293,
      "è¦ģ": 294,
      "å°ı": 295,
      "æĢ": 296,
      "åĮ": 297,
      "è§": 298,
      "ä¸ĭ": 299,
      "å¯": 300,
      "å·": 301,
      "å½": 302,
      "èĥ½": 303,
      "çŃ": 304,
      "ä»¬": 305,
      "çĶŁ": 306,
      "çİ": 307,
      "æķ°": 308,
      "ä¸į": 309,
      "åı¯ä»¥": 310,
      "éĿ": 311,
      "çĽ": 312,
      "èĢ": 313,
      "çļĦæ": 314,
      "ä¸Ģä¸ª": 315,
      "æĪĲ": 316,
      "æ³": 317,
      "åĩº": 318,
      "åŃĲ": 319,
      "åĪ°": 320,
      "å¦": 321,
      "æı": 322,
      "åĵ": 323,
      "ä»ĸ": 324,
      "æ¯": 325,
      "åİ": 326,
      "æĬ": 327,
      "æĦ": 328,
      "æ°": 329,
      "åĪĨ": 330,
      "åĳ": 331,
      "æĿ¥": 332,
      "æŀľ": 333,
      "æĥ": 334,
      "èĩ": 335,
      "çĲ": 336,
      "çº": 337,
      "ä¸Ĭ": 338,
      "å¦Ĥ": 339,
      "ï¼Ł": 340,
      "ä¿": 341,
      "é¢ĺ": 342,
      "æĭ": 343,
      "è¡Į": 344,
      "åŃ¦": 345,
      "å¿": 346,
      "æĹ¶": 347,
      "è¾": 348,
      "æľ¬": 349,
      "ä¾": 350,
      "æİ": 351,
      "äºİ": 352,
      "æĶ": 353,
      "æį": 354,
      "ç®": 355,
      "è´": 356,
      "ä½ł": 357,
      "æĽ": 358,
      "åľ°": 359,
      "æĺİ": 360,
      "å°Ĩ": 361,
      "æµ": 362,
      "å¤§": 363,
      "ç»Ļ": 364,
      "å¤ļ": 365,
      "èµ": 366,
      "å¥½": 367,
      "å¤©": 368,
      "çī©": 369,
      "ç±": 370,
      "æĻ": 371,
      "å®ļ": 372,
      "å¯¹": 373,
      "æıĲ": 374,
      "æĸ¹": 375,
      "å±": 376,
      "æ¬": 377,
      "çŃī": 378,
      "ä½ľ": 379,
      "èī": 380,
      "éĿ¢": 381,
      "åĬ¨": 382,
      "éľ": 383,
      "æľĢ": 384,
      "åħ¶": 385,
      "å®ĥ": 386,
      "é£": 387,
      "çļĦç": 388,
      "èĩª": 389,
      "å¹¶": 390,
      "æĮ": 391,
      "ä¼ļ": 392,
      "æį®": 393,
      "åĽł": 394,
      "æ¸": 395,
      "âĢĿ": 396,
      "æ³ķ": 397,
      "åı¥": 398,
      "çİ°": 399,
      "è¯Ń": 400,
      "äºĽ": 401,
      "éĻ": 402,
      "âĢľ": 403,
      "ç³": 404,
      "éĹ®": 405,
      "åħ³": 406,
      "è½": 407,
      "éģ": 408,
      "æ²": 409,
      "æĽ´": 410,
      "ç«": 411,
      "æ´": 412,
      "éľĢ": 413,
      "åĬł": 414,
      "æĤ": 415,
      "åıĳ": 416,
      "å¾Ĺ": 417,
      "è¿ĩ": 418,
      "ç§į": 419,
      "è¡¨": 420,
      "åī": 421,
      "æĪĸ": 422,
      "è¿Ľ": 423,
      "è¯į": 424,
      "æĪĳä»¬": 425,
      "çĦ": 426,
      "çĤ": 427,
      "æ±": 428,
      "ç±»": 429,
      "èĬ": 430,
      "ä½¿": 431,
      "éĺ": 432,
      "å¹´": 433,
      "å®¶": 434,
      "ä½ĵ": 435,
      "åĲĮ": 436,
      "èĭ": 437,
      "åŁ": 438,
      "å¸¸": 439,
      "æĸ°": 440,
      "çľ": 441,
      "æŃ¤": 442,
      "æīĢ": 443,
      "è¯·": 444,
      "åĵģ": 445,
      "åĢ": 446,
      "é«": 447,
      "çĦ¶": 448,
      "ç¾": 449,
      "ä¹Ī": 450,
      "èī²": 451,
      "æĢ§": 452,
      "æĦŁ": 453,
      "éĶ": 454,
      "åģ": 455,
      "ä»¥ä¸ĭ": 456,
      "çĶµ": 457,
      "åº¦": 458,
      "éĩı": 459,
      "çĲĨ": 460,
      "åĬĽ": 461,
      "é«ĺ": 462,
      "æĸĩæľ¬": 463,
      "åĲį": 464,
      "éľĢè¦ģ": 465,
      "ä¹ĭ": 466,
      "ç¬": 467,
      "è®¡": 468,
      "çŁ": 469,
      "è°": 470,
      "in": 471,
      "åĮĸ": 472,
      "åĲİ": 473,
      "å·¥": 474,
      "ä¸»": 475,
      "æľº": 476,
      "è¶": 477,
      "ä¹Ł": 478,
      "è§£": 479,
      "å½±": 480,
      "ç¨": 481,
      "æĥħ": 482,
      "é¦": 483,
      "æ¡": 484,
      "éĤ": 485,
      "è¿Ļä¸ª": 486,
      "éĹ´": 487,
      "Ġt": 488,
      "çĿ": 489,
      "åºĶ": 490,
      "åħ¬": 491,
      "åĽ½": 492,
      "å°ıæĺİ": 493,
      "éĩĮ": 494,
      "æģ": 495,
      "æĤ¨": 496,
      "éĢļ": 497,
      "åĸ": 498,
      "åħ¥": 499,
      "æł¹": 500,
      "åŃĹ": 501,
      "èĢĮ": 502,
      "éĩį": 503,
      "ç©": 504,
      "ç¾İ": 505,
      "éĹ®é¢ĺ": 506,
      "ç¤": 507,
      "æ¯ı": 508,
      "æĹ¥": 509,
      "çĽ¸": 510,
      "ç®Ĺ": 511,
      "Ġa": 512,
      "èĤ": 513,
      "è¿ĺ": 514,
      "åĲĪ": 515,
      "åĿ": 516,
      "å¼ı": 517,
      "æ°Ķ": 518,
      "çĲĥ": 519,
      "åı¥åŃĲ": 520,
      "éķ": 521,
      "ç»ı": 522,
      "çĤ¹": 523,
      "10": 524,
      "Ġ=": 525,
      "é¡": 526,
      "å¿ĥ": 527,
      "çĿĢ": 528,
      "er": 529,
      "æĦı": 530,
      "è·": 531,
      "ä¾Ľ": 532,
      "èĢħ": 533,
      "éĽ": 534,
      "ç½": 535,
      "åĮħ": 536,
      "æł¹æį®": 537,
      "è¿°": 538,
      "æ¯Ķ": 539,
      "æĺ¯ä¸Ģ": 540,
      "å»": 541,
      "ä½¿çĶ¨": 542,
      "å¾Ī": 543,
      "äºĭ": 544,
      "è¯¥": 545,
      "ç¨ĭ": 546,
      "æ®": 547,
      "çķ": 548,
      "åħĥ": 549,
      "çŃĶ": 550,
      "æ°´": 551,
      "ä¿¡": 552,
      "ä¿Ŀ": 553,
      "æŁ": 554,
      "ç¡": 555,
      "åĨĻ": 556,
      "åįķ": 557,
      "èĲ": 558,
      "åİ»": 559,
      "éĤ£": 560,
      "çī¹": 561,
      "å®ŀ": 562,
      "on": 563,
      "éĥ½": 564,
      "æıĲä¾Ľ": 565,
      "è¿Ľè¡Į": 566,
      "20": 567,
      "æŃ£": 568,
      "éģĵ": 569,
      "æĥ³": 570,
      "è¢": 571,
      "ç´": 572,
      "æ·": 573,
      "çĥ": 574,
      "å¢": 575,
      "åŀ": 576,
      "éħ": 577,
      "å¼Ģ": 578,
      "éķ¿": 579,
      "æ¡Ī": 580,
      "ä¸İ": 581,
      "å½ĵ": 582,
      "ä¸¤": 583,
      "å»º": 584,
      "å°ĳ": 585,
      "çĭ": 586,
      "éĥ": 587,
      "æĬĢ": 588,
      "çĽ®": 589,
      "åħ·": 590,
      "è¯´": 591,
      "ï¼ī": 592,
      "ä½Ĩ": 593,
      "èį": 594,
      "åķ": 595,
      "ä»Ģ": 596,
      "æ®µ": 597,
      "éļ": 598,
      "ä»İ": 599,
      "he": 600,
      "åĽŀ": 601,
      "è®©": 602,
      "èµ·": 603,
      "å¤ĸ": 604,
      "ç¿": 605,
      "éĿŀ": 606,
      "ï¼Ī": 607,
      "çĶŁæĪĲ": 608,
      "ç»ĵ": 609,
      "ç³»": 610,
      "ç¼": 611,
      "ä»£": 612,
      "çĪ": 613,
      "æģ¯": 614,
      "åĽłæŃ¤": 615,
      "å¸Ĥ": 616,
      "æľ¯": 617,
      "an": 618,
      "é£Ł": 619,
      "åıª": 620,
      "en": 621,
      "éĴ": 622,
      "ç¡®": 623,
      "æīĭ": 624,
      "æĢ»": 625,
      "åĪĹ": 626,
      "åıĺ": 627,
      "åħ¨": 628,
      "å¹³": 629,
      "åŀĭ": 630,
      "æĹł": 631,
      "åĪ¶": 632,
      "åĨħ": 633,
      "éĥ¨": 634,
      "ç«ł": 635,
      "ç»Ļå®ļ": 636,
      "ä»Ģä¹Ī": 637,
      "ä½į": 638,
      "å¥½çļĦ": 639,
      "çľĭ": 640,
      "çł": 641,
      "è¢«": 642,
      "éĢī": 643,
      "ä¸ī": 644,
      "åĸľ": 645,
      "éĢĤ": 646,
      "æĸĩç«ł": 647,
      "æ»": 648,
      "æ´»": 649,
      "åīį": 650,
      "ä¸ĢäºĽ": 651,
      "é»": 652,
      "çº¢": 653,
      "èģ": 654,
      "è¨": 655,
      "æ¬¢": 656,
      "è¯Ŀ": 657,
      "ç¯": 658,
      "ä½ķ": 659,
      "ä¸ļ": 660,
      "ä¸ŃçļĦ": 661,
      "å§": 662,
      "re": 663,
      "éŁ": 664,
      "æĻº": 665,
      "ä¹ł": 666,
      "ä»¶": 667,
      "èĪ": 668,
      "èº": 669,
      "è®¡ç®Ĺ": 670,
      "åıĸ": 671,
      "æłĩ": 672,
      "çĻ": 673,
      "åıĬ": 674,
      "é£İ": 675,
      "æł¼": 676,
      "ç³ĸ": 677,
      "å¦Ĥæŀľ": 678,
      "åıĹ": 679,
      "é¥": 680,
      "éĿŀå¸¸": 681,
      "is": 682,
      "çĶµå½±": 683,
      "äº§": 684,
      "å£": 685,
      "æľŁ": 686,
      "èĬ±": 687,
      "ãĢĭ": 688,
      "ãĢĬ": 689,
      "å°±": 690,
      "èº«": 691,
      "éª": 692,
      "å¸®": 693,
      "å±ķ": 694,
      "åĪ«": 695,
      "å½¢": 696,
      "åĬ¡": 697,
      "æ±Ĥ": 698,
      "åıĭ": 699,
      "Ġs": 700,
      "æ¶": 701,
      "åĻ": 702,
      "æľĪ": 703,
      "åľº": 704,
      "or": 705,
      "åĪ©": 706,
      "è´¨": 707,
      "è®¾": 708,
      "ç®Ģ": 709,
      "ä¾ĭ": 710,
      "ç»Ħ": 711,
      "æĭ¬": 712,
      "çĸ": 713,
      "æıı": 714,
      "æĻºèĥ½": 715,
      "çģ": 716,
      "ä¿¡æģ¯": 717,
      "æĺŁ": 718,
      "é¸": 719,
      "Ġ1": 720,
      "æķ°æį®": 721,
      "ç§ĳ": 722,
      "at": 723,
      "è¨Ģ": 724,
      "ä»·": 725,
      "éĵ": 726,
      "åĻ¨": 727,
      "é¦ĸ": 728,
      "èĭ±": 729,
      "ä¹Ĳ": 730,
      "ä»ĸä»¬": 731,
      "æĮģ": 732,
      "ç¥": 733,
      "æ¼": 734,
      "è¾ĵ": 735,
      "èı": 736,
      "æµ·": 737,
      "ç¿»": 738,
      "æ¨": 739,
      "ç¤º": 740,
      "åĬ©": 741,
      "èĻ": 742,
      "æŃ¥": 743,
      "å®ĥä»¬": 744,
      "æĶ¾": 745,
      "å¤Ħ": 746,
      "è±": 747,
      "ç¯ĩ": 748,
      "åı¯èĥ½": 749,
      "å®¹": 750,
      "es": 751,
      "çŁ¥": 752,
      "èĥ": 753,
      "è¯ĳ": 754,
      "æİ¨": 755,
      "å·±": 756,
      "åİŁ": 757,
      "æııè¿°": 758,
      "çĶ±": 759,
      "éŁ³": 760,
      "èĩªå·±": 761,
      "è£": 762,
      "åĪĽ": 763,
      "ä»»": 764,
      "è®º": 765,
      "00": 766,
      "åĸľæ¬¢": 767,
      "çĮ": 768,
      "åħ±": 769,
      "è¿ĻäºĽ": 770,
      "æ¬¡": 771,
      "èİ": 772,
      "åı¸": 773,
      "åħī": 774,
      "èĬĤ": 775,
      "æ²¡": 776,
      "åŃ¦ä¹ł": 777,
      "åĩł": 778,
      "ä¹¦": 779,
      "è¾¾": 780,
      "ç¿»è¯ĳ": 781,
      "åĮħæĭ¬": 782,
      "æ¸¸": 783,
      "åºı": 784,
      "æĮĩ": 785,
      "è½¦": 786,
      "è®®": 787,
      "äº¤": 788,
      "ç²": 789,
      "ä¸ĸ": 790,
      "¹æŀľ": 791,
      "éĢļè¿ĩ": 792,
      "æī¾": 793,
      "èĭ¹æŀľ": 794,
      "ä¹ī": 795,
      "Ġb": 796,
      "le": 797,
      "ç»Ł": 798,
      "æľĭ": 799,
      "çİ¯": 800,
      "æĸĻ": 801,
      "èĦ": 802,
      "æł·": 803,
      "æĹ¶éĹ´": 804,
      "æµģ": 805,
      "é©": 806,
      "åĨ³": 807,
      "æĶ¯": 808,
      "æľĭåıĭ": 809,
      "åĽłä¸º": 810,
      "æĳ": 811,
      "ï¼Ľ": 812,
      "Ġ2": 813,
      "çĪ±": 814,
      "åĢ¼": 815,
      "ou": 816,
      "ä¸įåĲĮ": 817,
      "æĶ¹": 818,
      "Ġ-": 819,
      "Ġc": 820,
      "ä¹°": 821,
      "åı£": 822,
      "æŃĮ": 823,
      "ar": 824,
      "Ġd": 825,
      "æĢĿ": 826,
      "åĳ³": 827,
      "æľį": 828,
      "å¤ª": 829,
      "æĬĢæľ¯": 830,
      "æ¨¡": 831,
      "å®ī": 832,
      "ä¸¤ä¸ª": 833,
      "è¿Ĳ": 834,
      "åħĭ": 835,
      "ç¦": 836,
      "è§Ĥ": 837,
      "å¥¹": 838,
      "åħ¬åı¸": 839,
      "ç©º": 840,
      "å·²": 841,
      "ç¬¬": 842,
      "æĻ¯": 843,
      "åħĪ": 844,
      "çķĮ": 845,
      "çŃĶæ¡Ī": 846,
      "æ·±": 847,
      "æĪ·": 848,
      "åŁİ": 849,
      "Ġ3": 850,
      "ç³ĸæŀľ": 851,
      "æ¯ıä¸ª": 852,
      "æ¸ħ": 853,
      "åĳĬ": 854,
      "å¤Ł": 855,
      "æķĪ": 856,
      "äººå·¥": 857,
      "ä»Ĭ": 858,
      "çĹ": 859,
      "é¤": 860,
      "åķĨ": 861,
      "æīĢä»¥": 862,
      "åĵį": 863,
      "æĺ¯ä¸Ģä¸ª": 864,
      "ä»½": 865,
      "æ²¡æľī": 866,
      "åĳĺ": 867,
      "æķ´": 868,
      "it": 869,
      "Ġp": 870,
      "èĲ½": 871,
      "åģ¥": 872,
      "æº": 873,
      "å¢ĥ": 874,
      "é¤Ĳ": 875,
      "åģļ": 876,
      "èıľ": 877,
      "Ġthe": 878,
      "èĮ": 879,
      "åĲĳ": 880,
      "å¼º": 881,
      "äººå·¥æĻºèĥ½": 882,
      "Ġw": 883,
      "æ³¨": 884,
      "æĭ©": 885,
      "éĺ³": 886,
      "å¦Ĥä½ķ": 887,
      "ing": 888,
      "æľª": 889,
      "åŁº": 890,
      "Ġf": 891,
      "åİĨ": 892,
      "çħ": 893,
      "å¸¦": 894,
      "ä¼ł": 895,
      "æ£": 896,
      "è¯Ńè¨Ģ": 897,
      "çı": 898,
      "éĢīæĭ©": 899,
      "éĩĳ": 900,
      "å¥³": 901,
      "é¢Ĩ": 902,
      "è°ĥ": 903,
      "éĩįè¦ģ": 904,
      "æŀģ": 905,
      "æİ¥": 906,
      "çŁŃ": 907,
      "èĩªçĦ¶": 908,
      "Ġm": 909,
      "é¡¹": 910,
      "çİ°åľ¨": 911,
      "åį³": 912,
      "æķħ": 913,
      "å¤ļå°ĳ": 914,
      "éĶ®": 915,
      "å®Į": 916,
      "è¯Ħ": 917,
      "æ¸©": 918,
      "æİĴ": 919,
      "åĩı": 920,
      "Â·": 921,
      "éĤ£ä¹Ī": 922,
      "çº¦": 923,
      "åĪĨç±»": 924,
      "èĳ": 925,
      "å¿«": 926,
      "åĲ«": 927,
      "åĮº": 928,
      "å§ĭ": 929,
      "ç±³": 930,
      "æĬĬ": 931,
      "ç½ĳ": 932,
      "è¥": 933,
      "åĽŀçŃĶ": 934,
      "åĵª": 935,
      "è¯ķ": 936,
      "æļ": 937,
      "éĶĻ": 938,
      "è¿ĳ": 939,
      "æĿ¡": 940,
      "åįķè¯į": 941,
      "å¾ĹåĪ°": 942,
      "ç¼ĸ": 943,
      "åĪĻ": 944,
      "é¢Ħ": 945,
      "è¥¿": 946,
      "çĬ": 947,
      "å½±åĵį": 948,
      "ç´ł": 949,
      "åĶ": 950,
      "å¯¼": 951,
      "åĲĦ": 952,
      "ï¼ģ": 953,
      "åĲĹ": 954,
      "åħ³äºİ": 955,
      "å±±": 956,
      "æĸŃ": 957,
      "å¸®åĬ©": 958,
      "è¯Ĺ": 959,
      "äºĨä¸Ģ": 960,
      "ç¤¾": 961,
      "åĩĨ": 962,
      "è¯Ĩ": 963,
      "æĹħ": 964,
      "çīĩ": 965,
      "åħ³éĶ®": 966,
      "ä¸»é¢ĺ": 967,
      "èĢĥ": 968,
      "ä¸Ķ": 969,
      "åĲĥ": 970,
      "åħ¶ä»ĸ": 971,
      "ä¸ĸçķĮ": 972,
      "å¤ĩ": 973,
      "æĸ¯": 974,
      "åºĶçĶ¨": 975,
      "``": 976,
      "å¼ķ": 977,
      "ç»Ļå®ļçļĦ": 978,
      "éĢł": 979,
      "çĶ·": 980,
      "è½»": 981,
      "åŁŁ": 982,
      "ç§¯": 983,
      "èĥ½å¤Ł": 984,
      "ä¾ĭå¦Ĥ": 985,
      "ç¬Ķ": 986,
      "è±¡": 987,
      "Ġ5": 988,
      "åħ¶ä¸Ń": 989,
      "æķ°åŃĹ": 990,
      "Ġ\"": 991,
      "ç»Ļåĩº": 992,
      "åī©": 993,
      "åıĳå±ķ": 994,
      "Ġl": 995,
      "al": 996,
      "ic": 997,
      "æ»¡": 998,
      "å¤´": 999,
      "åĬ¨çī©": 1000,
      "å»ºè®®": 1001,
      "éĻ¤": 1002,
      "Ġ+": 1003,
      "è·¯": 1004,
      "ç»Ĩ": 1005,
      "å¢ŀ": 1006,
      "å®¢": 1007,
      "åĲ¦": 1008,
      "æµĭ": 1009,
      "åĬŁ": 1010,
      "åĨį": 1011,
      "ä¼ĺ": 1012,
      "åº·": 1013,
      "åĳ¨": 1014,
      "æĲ": 1015,
      "çº¿": 1016,
      "åŃĺ": 1017,
      "åºĶè¯¥": 1018,
      "çĭĹ": 1019,
      "çĻ½": 1020,
      "ç©¶": 1021,
      "æīĵ": 1022,
      "è§Ĩ": 1023,
      "è®¤": 1024,
      "çĶŁæ´»": 1025,
      "åĲĮæĹ¶": 1026,
      "è¯»": 1027,
      "èĽ": 1028,
      "éħį": 1029,
      "æīĢæľī": 1030,
      "å²": 1031,
      "é¦Ļ": 1032,
      "ãĢĤ\\": 1033,
      "äººç±»": 1034,
      "èĩ³": 1035,
      "ä»¥åıĬ": 1036,
      "è§Ĵ": 1037,
      "å¤į": 1038,
      "æĸ¹å¼ı": 1039,
      "éªĮ": 1040,
      "åĿĩ": 1041,
      "æĽ´åĬł": 1042,
      "el": 1043,
      "äººä»¬": 1044,
      "çĽ´": 1045,
      "äºĮ": 1046,
      "åıį": 1047,
      "æĸ¹æ³ķ": 1048,
      "åŁİå¸Ĥ": 1049,
      "æĢģ": 1050,
      "çĮ«": 1051,
      "ç¥ŀ": 1052,
      "ç§°": 1053,
      "åı²": 1054,
      "è½¬": 1055,
      "æºĲ": 1056,
      "ä¸ŃåĽ½": 1057,
      "æķħäºĭ": 1058,
      "åģ¥åº·": 1059,
      "å·¥ä½ľ": 1060,
      "å¹¿": 1061,
      "åı·": 1062,
      "åĭ": 1063,
      "æ¢": 1064,
      "om": 1065,
      "Ķç©¶": 1066,
      "å°ıçº¢": 1067,
      "ç«ĭ": 1068,
      "è®¸": 1069,
      "æĪĺ": 1070,
      "è¶³": 1071,
      "æľĽ": 1072,
      "æ¬¾": 1073,
      "Ġo": 1074,
      "çİĩ": 1075,
      "çĥŃ": 1076,
      "åĮ»": 1077,
      "çľŁ": 1078,
      "ä¸Ģç¯ĩ": 1079,
      "æ¤": 1080,
      "ç®¡": 1081,
      "éĢŁ": 1082,
      "æĬ¥": 1083,
      "ä¹ĭä¸Ģ": 1084,
      "æ©": 1085,
      "è´Ń": 1086,
      "è§ī": 1087,
      "è¾ĵåħ¥": 1088,
      "åĥ": 1089,
      "çļĦæĥ": 1090,
      "æ¼Ķ": 1091,
      "ãĢĤâĢĿ": 1092,
      "ä¸Ģä¸ĭ": 1093,
      "çİ¯å¢ĥ": 1094,
      "åĢĻ": 1095,
      "æķ°éĩı": 1096,
      "æŁ¥": 1097,
      "ä¹ĭéĹ´": 1098,
      "ä¸»è¦ģ": 1099,
      "è¶Ĭ": 1100,
      "æŀĲ": 1101,
      "æĶ¶": 1102,
      "as": 1103,
      "åĽ¾": 1104,
      "èįĲ": 1105,
      "çĦ¶åĲİ": 1106,
      "æŀĦ": 1107,
      "åĳ½": 1108,
      "è¾ĥ": 1109,
      "é¢Ĺ": 1110,
      "å¸ĥ": 1111,
      "åĨµ": 1112,
      "ï¼ļâĢľ": 1113,
      "èĩ´": 1114,
      "æĬ¤": 1115,
      "Ġn": 1116,
      "ä»Ĭå¤©": 1117,
      "åŃ£": 1118,
      "ç¿»è¯ĳæĪĲ": 1119,
      "åĨħå®¹": 1120,
      "çļĦäºº": 1121,
      "ç»ĻæĪĳ": 1122,
      "åı¥è¯Ŀ": 1123,
      "èµĦ": 1124,
      "é¢ĨåŁŁ": 1125,
      "çłģ": 1126,
      "æĺ¯ä¸Ģç§į": 1127,
      "åıĤ": 1128,
      "æĿĲ": 1129,
      "æĺĵ": 1130,
      "ç»Ń": 1131,
      "Ġto": 1132,
      "åĪĨæŀĲ": 1133,
      "æıĲé«ĺ": 1134,
      "é¢ĺçĽ®": 1135,
      "æķĻ": 1136,
      "åĽŃ": 1137,
      "æķ°åŃ¦": 1138,
      "èĤī": 1139,
      "æľºåĻ¨": 1140,
      "æİ¨èįĲ": 1141,
      "ä¸½": 1142,
      "éĩĬ": 1143,
      "åįİ": 1144,
      "å¤©æ°Ķ": 1145,
      "åı¤": 1146,
      "è®¾è®¡": 1147,
      "æħ": 1148,
      "è§ģ": 1149,
      "ed": 1150,
      "åĪ°äºĨ": 1151,
      "äº§åĵģ": 1152,
      "èĽĭ": 1153,
      "èİ·": 1154,
      "ç¬¦": 1155,
      "ç»ĵæŀľ": 1156,
      "è°¢": 1157,
      "è¾¹": 1158,
      "th": 1159,
      "éļı": 1160,
      "Ġ4": 1161,
      "èħ": 1162,
      "é»ĳ": 1163,
      "è®°": 1164,
      "ä½Ĩæĺ¯": 1165,
      "ç¢": 1166,
      "è£ħ": 1167,
      "èĢģ": 1168,
      "um": 1169,
      "éŁ³ä¹Ĳ": 1170,
      "äºĶ": 1171,
      "å¼ł": 1172,
      "ä¸ªèĭ¹æŀľ": 1173,
      "Ġ|": 1174,
      "å·²ç»ı": 1175,
      "çħ§": 1176,
      "åĥı": 1177,
      "12": 1178,
      "ç½®": 1179,
      "éĽĨ": 1180,
      "æĪĸèĢħ": 1181,
      "èµ°": 1182,
      "ä¾¿": 1183,
      "è¯ī": 1184,
      "èģĶ": 1185,
      "ĺè¦ģ": 1186,
      "Ġin": 1187,
      "çĹħ": 1188,
      "nd": 1189,
      "æĸĩåĮĸ": 1190,
      "é²": 1191,
      "æ¨¡åŀĭ": 1192,
      "å¤ĦçĲĨ": 1193,
      "éĺŁ": 1194,
      "è¡¨ç¤º": 1195,
      "ç³»ç»Ł": 1196,
      "ç¦»": 1197,
      "ä¸Ģæ®µ": 1198,
      "å¤ı": 1199,
      "äº«": 1200,
      "æľªæĿ¥": 1201,
      "éĹ¨": 1202,
      "ro": 1203,
      "éĴ±": 1204,
      "åĽĽ": 1205,
      "è§£åĨ³": 1206,
      "å°½": 1207,
      "éļ¾": 1208,
      "çļĦæĦ": 1209,
      "è¶£": 1210,
      "ç´¢": 1211,
      "å¡": 1212,
      "åįĩ": 1213,
      "æİ¢": 1214,
      "éĿ¢çļĦ": 1215,
      "çĭ¬": 1216,
      "Ġh": 1217,
      "è§Ħ": 1218,
      "é¸¡": 1219,
      "çīĽ": 1220,
      "æľįåĬ¡": 1221,
      "åĮĹ": 1222,
      "ä»ĭ": 1223,
      "çłĶç©¶": 1224,
      "çļĦæĥħ": 1225,
      "ä»ĸçļĦ": 1226,
      "å¼Ģå§ĭ": 1227,
      "åħħ": 1228,
      "ä¸Ģç§į": 1229,
      "èµĽ": 1230,
      "é©¬": 1231,
      "å°Ķ": 1232,
      "ĠÃ": 1233,
      "ç²¾": 1234,
      "åħ·æľī": 1235,
      "æį¢": 1236,
      "åįģ": 1237,
      "èĭ±æĸĩ": 1238,
      "çĬ¶": 1239,
      "è®¸å¤ļ": 1240,
      "éĩĩ": 1241,
      "æĮī": 1242,
      "åĲ¬": 1243,
      "è¡¨è¾¾": 1244,
      "ä¸Ńæĸĩ": 1245,
      "é¥®": 1246,
      "ä¿®": 1247,
      "å£°": 1248,
      "è´¹": 1249,
      "éĢļå¸¸": 1250,
      "è¯¯": 1251,
      "åħ·ä½ĵ": 1252,
      "æ¦": 1253,
      "é»Ħ": 1254,
      "æĪĳä»¬åı¯ä»¥": 1255,
      "æĭī": 1256,
      "ä½łçļĦ": 1257,
      "èįī": 1258,
      "15": 1259,
      "èĩªå·±çļĦ": 1260,
      "éĹ»": 1261,
      "åıĳçİ°": 1262,
      "çĸĹ": 1263,
      "åī©ä¸ĭ": 1264,
      "æĪĲä¸º": 1265,
      "åĪĴ": 1266,
      "åĳĬè¯ī": 1267,
      "ä¸Ģèµ·": 1268,
      "ent": 1269,
      "ç»Ī": 1270,
      "æĻļ": 1271,
      "éĻ©": 1272,
      "ä½İ": 1273,
      "åĦ": 1274,
      "å£«": 1275,
      "é¦ĸåħĪ": 1276,
      "æīį": 1277,
      "çĽ¸åħ³": 1278,
      "æıĲåıĸ": 1279,
      "åİĨåı²": 1280,
      "èĳĹ": 1281,
      "Ġis": 1282,
      "åĲ¸": 1283,
      "æŃ¤å¤ĸ": 1284,
      "æŀĹ": 1285,
      "è¾ĵåĩº": 1286,
      "çĨ": 1287,
      "ä»·æł¼": 1288,
      "è¿ĲåĬ¨": 1289,
      "è¡£": 1290,
      "å¥¶": 1291,
      "æĽ²": 1292,
      "æ´»åĬ¨": 1293,
      "æĽ´å¤ļ": 1294,
      "èĵ": 1295,
      "è¦ģæ±Ĥ": 1296,
      "çĶŁæĪĲä¸Ģä¸ª": 1297,
      "Ġ(": 1298,
      "æ¯į": 1299,
      "æĺ¯åĲ¦": 1300,
      "å¤±": 1301,
      "è§£éĩĬ": 1302,
      "æĿ¾": 1303,
      "éĢĤåĲĪ": 1304,
      "ç¾İåĽ½": 1305,
      "åŃ©": 1306,
      "è¿ľ": 1307,
      "å¨": 1308,
      "çĶ¨æĪ·": 1309,
      "æĴ": 1310,
      "æłĳ": 1311,
      "åħ¨çĲĥ": 1312,
      "çĶ»": 1313,
      "æĸ°çļĦ": 1314,
      "ç»ĥ": 1315,
      "æ¶Ī": 1316,
      "æĵ": 1317,
      "å®īåħ¨": 1318,
      "å¤ªéĺ³": 1319,
      "åĮħåĲ«": 1320,
      "è®²": 1321,
      "ä¼¼": 1322,
      "çļĦæ°": 1323,
      "ä¸ªç³ĸæŀľ": 1324,
      "åħ³éĶ®è¯į": 1325,
      "åĽ´": 1326,
      "æĹłæ³ķ": 1327,
      "å¯Ĩ": 1328,
      "æĳĺè¦ģ": 1329,
      "æĪ¿": 1330,
      "çģ«": 1331,
      "ac": 1332,
      "æĪı": 1333,
      "ç»´": 1334,
      "é¸Ł": 1335,
      "éĶĢ": 1336,
      "ion": 1337,
      "åİħ": 1338,
      "é±": 1339,
      "çİ©": 1340,
      "çª": 1341,
      "éº": 1342,
      "å¾·": 1343,
      "éĵħ": 1344,
      "å·§": 1345,
      "é±¼": 1346,
      "æĪĳçļĦ": 1347,
      "åĿĹ": 1348,
      "è¶ħ": 1349,
      "ç§ĳåŃ¦": 1350,
      "å°ıè¯´": 1351,
      "éĽ¨": 1352,
      "åł": 1353,
      "åĳ¢": 1354,
      "æ²¹": 1355,
      "éĵħç¬Ķ": 1356,
      "å¯¹äºİ": 1357,
      "åįĹ": 1358,
      "å¹³åĿĩ": 1359,
      "å®ŀçİ°": 1360,
      "å¤§çļĦ": 1361,
      "æĺ¾": 1362,
      "åıĺåĮĸ": 1363,
      "é£ŀ": 1364,
      "ä»»åĬ¡": 1365,
      "éĴŁ": 1366,
      "èīº": 1367,
      "çĵ": 1368,
      "ä¿ĿæĮģ": 1369,
      "åĪĹè¡¨": 1370,
      "é¾": 1371,
      "äººçļĦ": 1372,
      "å°ıæĺİæľī": 1373,
      "ä¸ľ": 1374,
      "è¿ĩç¨ĭ": 1375,
      "åıĪ": 1376,
      "Ġy": 1377,
      "äºĴ": 1378,
      "ä»¤": 1379,
      "ä¸ĩ": 1380,
      "19": 1381,
      "äº¬": 1382,
      "åĦ¿": 1383,
      "å¹²": 1384,
      "åı¦": 1385,
      "åħ´": 1386,
      "è¯·éĹ®": 1387,
      "æľĢåĲİ": 1388,
      "çº§": 1389,
      "st": 1390,
      "å¸Į": 1391,
      "çŁ¥éģĵ": 1392,
      "æĥħæĦŁ": 1393,
      "ç§ĭ": 1394,
      "åľ°çĲĥ": 1395,
      "éĶĻè¯¯": 1396,
      "å¿ħ": 1397,
      "å±ŀ": 1398,
      "æĪĳæĥ³": 1399,
      "æłĩé¢ĺ": 1400,
      "çļĦæĺ¯": 1401,
      "å¾Īå¤ļ": 1402,
      "æĹ©": 1403,
      "æ°ĳ": 1404,
      "åĴĸ": 1405,
      "éħĴ": 1406,
      "å·´": 1407,
      "èĻĳ": 1408,
      "å¤ľ": 1409,
      "æŁĲ": 1410,
      "äºļ": 1411,
      "ç»į": 1412,
      "å¯Į": 1413,
      "éĻħ": 1414,
      "Ġand": 1415,
      "åı°": 1416,
      "æĸ¹éĿ¢": 1417,
      "ç®Ģåįķ": 1418,
      "å¾®": 1419,
      "èĲ¥": 1420,
      "ä»ĭç»į": 1421,
      "å¥ĩ": 1422,
      "åĪ¶ä½ľ": 1423,
      "è¿Ļç§į": 1424,
      "èī²çļĦ": 1425,
      "è¯ģ": 1426,
      "æĺ¥": 1427,
      "åĪĩ": 1428,
      "çİĭ": 1429,
      "èĵĿ": 1430,
      "é¢ľ": 1431,
      "et": 1432,
      "è®¡ç®Ĺæľº": 1433,
      "ç©¿": 1434,
      "æĸĩæ¡Ī": 1435,
      "å¸Ī": 1436,
      "çĥ¤": 1437,
      "åķ¡": 1438,
      "åħį": 1439,
      "åħ³ç³»": 1440,
      "è¿ĺæľī": 1441,
      "æĶ¿": 1442,
      "å°Ĩä»¥ä¸ĭ": 1443,
      "ä¸īä¸ª": 1444,
      "ç¤¾ä¼ļ": 1445,
      "åĴĸåķ¡": 1446,
      "çĶ¨äºİ": 1447,
      "èĥ½åĬĽ": 1448,
      "æĸ°éĹ»": 1449,
      "æĺ¯ä»Ģä¹Ī": 1450,
      "âĢĿãĢĤ": 1451,
      "æī¾åĪ°": 1452,
      "ver": 1453,
      "æĿ¯": 1454,
      "ç»¿": 1455,
      "å½ĵçĦ¶": 1456,
      "çīĮ": 1457,
      "ä¸įåĲĮçļĦ": 1458,
      "å¾ĭ": 1459,
      "éĺ²": 1460,
      "il": 1461,
      "ä½ľä¸º": 1462,
      "Ġof": 1463,
      "èº«ä½ĵ": 1464,
      "æŃ£ç¡®": 1465,
      "çŃĸ": 1466,
      "è¾ĳ": 1467,
      "ç¨ĭåºı": 1468,
      "æķ£": 1469,
      "am": 1470,
      "Ġ8": 1471,
      "æĹ¥æľŁ": 1472,
      "çļĦæĬ": 1473,
      "æ¹": 1474,
      "âĢĿï¼Į": 1475,
      "å°Ŀ": 1476,
      "åĬłåħ¥": 1477,
      "ç§ĳæĬĢ": 1478,
      "å°±æĺ¯": 1479,
      "åŃ¦çĶŁ": 1480,
      "ä¿ĿæĬ¤": 1481,
      "Ġ6": 1482,
      "çļĦä¸Ģ": 1483,
      "æ²»": 1484,
      "æĸ½": 1485,
      "åºĹ": 1486,
      "é¤Ĳåİħ": 1487,
      "å¿µ": 1488,
      "Ġ10": 1489,
      "åķĨåĵģ": 1490,
      "æĢİ": 1491,
      "æĭ¥": 1492,
      "ãĢĤ\"": 1493,
      "çĲĨè§£": 1494,
      "ä¸ĵ": 1495,
      "äºĨè§£": 1496,
      "æĿİ": 1497,
      "Ġg": 1498,
      "åĳĬè¯īæĪĳ": 1499,
      "èĤ²": 1500,
      "åı¶": 1501,
      "```": 1502,
      "æ³¨æĦı": 1503,
      "å¯»": 1504,
      "çıŃ": 1505,
      "æĦŁåĪ°": 1506,
      "åĲįç§°": 1507,
      "åĲĦç§į": 1508,
      "éĿĻ": 1509,
      "æ²Ļ": 1510,
      "æļĸ": 1511,
      "å®ĮæĪĲ": 1512,
      "ç«Ļ": 1513,
      "åĩıå°ĳ": 1514,
      "__": 1515,
      "èľ": 1516,
      "ç±»åŀĭ": 1517,
      "ä¸ªäºº": 1518,
      "æ¦Ĥ": 1519,
      "lo": 1520,
      "å®Ŀ": 1521,
      "åħ¸": 1522,
      "å¾ģ": 1523,
      "ä¸Ģåħ±": 1524,
      "è®¤ä¸º": 1525,
      "æİ§": 1526,
      "è¿Ļæ®µ": 1527,
      "æ¯Ķå¦Ĥ": 1528,
      "æĪĳä»¬çļĦ": 1529,
      "æ½": 1530,
      "æ©Ļ": 1531,
      "30": 1532,
      "å¹¶ä¸Ķ": 1533,
      "æ¿": 1534,
      "æŃ£åľ¨": 1535,
      "åĶ®": 1536,
      "ĠS": 1537,
      "å¸¦æĿ¥": 1538,
      "ä¸įæĺ¯": 1539,
      "å®ĥçļĦ": 1540,
      "éĻį": 1541,
      "ä¸Ģä»½": 1542,
      "éĥ½æĺ¯": 1543,
      "ä»¥ä¸ĭæĺ¯ä¸Ģ": 1544,
      "äºĳ": 1545,
      "ve": 1546,
      "åĪĨéĴŁ": 1547,
      "æĤ¨çļĦ": 1548,
      "è¿ŀ": 1549,
      "æ®µèĲ½": 1550,
      "åĸĦ": 1551,
      "yth": 1552,
      "è´¨éĩı": 1553,
      "ä»£çłģ": 1554,
      "èĴ": 1555,
      "æľĢè¿ĳ": 1556,
      "å¸ĮæľĽ": 1557,
      "å¾Ģ": 1558,
      "è´Ńä¹°": 1559,
      "çļĦåľ°": 1560,
      "im": 1561,
      "åĬ¿": 1562,
      "å¸®æĪĳ": 1563,
      "éĢģ": 1564,
      "åĩºçİ°": 1565,
      "è½¯": 1566,
      "å®¤": 1567,
      "èĪĴ": 1568,
      "åį¡": 1569,
      "èİ·å¾Ĺ": 1570,
      "åħ»": 1571,
      "å¯¼èĩ´": 1572,
      "è´Ł": 1573,
      "æ¥": 1574,
      "202": 1575,
      "è®¨": 1576,
      "ä»ħ": 1577,
      "æ¤į": 1578,
      "ython": 1579,
      "é£Łçī©": 1580,
      "ç®Ĺæ³ķ": 1581,
      "The": 1582,
      "éĨ": 1583,
      "ay": 1584,
      "æĥħåĨµ": 1585,
      "å½©": 1586,
      "éŃ": 1587,
      "è¿Ļåı¥è¯Ŀ": 1588,
      "åĽ¢": 1589,
      "æĸĩæľ¬ä¸Ń": 1590,
      "ä¸ĬçļĦ": 1591,
      "ä»»ä½ķ": 1592,
      "ç§¯æŀģ": 1593,
      "åī§": 1594,
      "å¢ŀåĬł": 1595,
      "çļĦç¾": 1596,
      "åŃĺåľ¨": 1597,
      "éĻĲ": 1598,
      "äºĨä¸Ģä¸ª": 1599,
      "ĠA": 1600,
      "è¿Ļæł·": 1601,
      "åģĩ": 1602,
      "åĨ°": 1603,
      "pp": 1604,
      "åİĭ": 1605,
      "ä¹ĭéĹ´çļĦ": 1606,
      "50": 1607,
      "é¼": 1608,
      "ç»ľ": 1609,
      "ä½łåı¯ä»¥": 1610,
      "è®¡åĪĴ": 1611,
      "æ¸¸æĪı": 1612,
      "ä¸įèĥ½": 1613,
      "ç¡®å®ļ": 1614,
      "ä¸¾": 1615,
      "èµ·æĿ¥": 1616,
      "å·®": 1617,
      "ĠC": 1618,
      "å±Ĥ": 1619,
      "é¢ľèī²": 1620,
      "ad": 1621,
      "æľºåĻ¨åŃ¦ä¹ł": 1622,
      "çļ®": 1623,
      "à¤": 1624,
      "åĬŁèĥ½": 1625,
      "èŀ": 1626,
      "ĠI": 1627,
      "å¸Ĥåľº": 1628,
      "æľĢç»Ī": 1629,
      "åºŃ": 1630,
      "è·ĳ": 1631,
      "å½Ĵ": 1632,
      "Ġe": 1633,
      "çĳ": 1634,
      "ä½Ļ": 1635,
      "çŃīçŃī": 1636,
      "ä¸įæĸŃ": 1637,
      "æľ¨": 1638,
      "é²ľ": 1639,
      "å°Ĩåħ¶": 1640,
      "æ³¢": 1641,
      "æĹħæ¸¸": 1642,
      "è¿Ļç¯ĩ": 1643,
      "æ¿Ģ": 1644,
      "çŁ³": 1645,
      "ä¼Ĺ": 1646,
      "åĤ": 1647,
      "æĭ¥æľī": 1648,
      "åĪ»": 1649,
      "åĩłä¸ª": 1650,
      "çĶŁåĳ½": 1651,
      "èĢĥèĻĳ": 1652,
      "è¡Įä¸º": 1653,
      "éĥ¨åĪĨ": 1654,
      "çĻ¾": 1655,
      "éĿĴ": 1656,
      "100": 1657,
      "æĪĲåĬŁ": 1658,
      "æĹħè¡Į": 1659,
      "Ġth": 1660,
      "ut": 1661,
      "Ġ7": 1662,
      "un": 1663,
      "åĪĨç»Ļ": 1664,
      "çļĦç¾İ": 1665,
      "åĪ©çĶ¨": 1666,
      "æµİ": 1667,
      "å°¼": 1668,
      "çļĦæĦı": 1669,
      "é¦Ĩ": 1670,
      "18": 1671,
      "æ¯Ķè¾ĥ": 1672,
      "ä¹ĺ": 1673,
      "oo": 1674,
      "æ°´æŀľ": 1675,
      "åĵªäºĽ": 1676,
      "äº®": 1677,
      "åĪ¤": 1678,
      "è¿ĺåī©ä¸ĭ": 1679,
      "è¿Ļæĺ¯": 1680,
      "ç½Ĺ": 1681,
      "æĩ": 1682,
      "ç®¡çĲĨ": 1683,
      "æ´ģ": 1684,
      "ãĢĤ-": 1685,
      "è¯ĨåĪ«": 1686,
      "çļĦå½±åĵį": 1687,
      "ce": 1688,
      "æľ¬ä¹¦": 1689,
      "åıĳçĶŁ": 1690,
      "çļĦä¿¡æģ¯": 1691,
      "ç¦ı": 1692,
      "ä¸ĭéĿ¢": 1693,
      "è®Ń": 1694,
      "ç½ĳç»ľ": 1695,
      "é¡º": 1696,
      "çĶ±äºİ": 1697,
      "æł¡": 1698,
      "åĲ§": 1699,
      "å²ģ": 1700,
      "æ´ĭ": 1701,
      "çĽ®æłĩ": 1702,
      "äº§çĶŁ": 1703,
      "æĮīçħ§": 1704,
      "æ³Ľ": 1705,
      "èŃ": 1706,
      "è¿½": 1707,
      "æĽ´å¥½": 1708,
      "å°ıåŃ¦": 1709,
      "è¿ĺæĺ¯": 1710,
      "æł¹æį®ç»Ļå®ļçļĦ": 1711,
      "èª": 1712,
      "ä¹Łåı¯ä»¥": 1713,
      "èģĮ": 1714,
      "qu": 1715,
      "éĺħ": 1716,
      "éģ¿": 1717,
      "èĶ": 1718,
      "ï¼ļ-": 1719,
      "ç¼ĸåĨĻ": 1720,
      "é£İæł¼": 1721,
      "ç»ıæµİ": 1722,
      "æľīæķĪ": 1723,
      "èīºæľ¯": 1724,
      "äºī": 1725,
      "æķ°åŃ¦é¢ĺ": 1726,
      "æĢİä¹Ī": 1727,
      "æľīè¶£": 1728,
      "å¦Ĥæŀľä½ł": 1729,
      "ur": 1730,
      "æ¼«": 1731,
      "id": 1732,
      "åħ¬åĽŃ": 1733,
      "åĮĹäº¬": 1734,
      "ç»ĩ": 1735,
      "Ġre": 1736,
      "èĮĥ": 1737,
      "å°Ŀè¯ķ": 1738,
      "ä½ľçĶ¨": 1739,
      "æ£Ģ": 1740,
      "çķĻ": 1741,
      "éľĢæ±Ĥ": 1742,
      "æ¯ĶèµĽ": 1743,
      "å¾ħ": 1744,
      "ä¹Łæĺ¯": 1745,
      "å±ħ": 1746,
      "æĤ¨åı¯ä»¥": 1747,
      "åŃĹæ¯į": 1748,
      "ç¡®ä¿Ŀ": 1749,
      "å®³": 1750,
      "æĿĲæĸĻ": 1751,
      "è¯¦": 1752,
      "è¡¨çİ°": 1753,
      "è¯Ħè®º": 1754,
      "äºĭä»¶": 1755,
      "èŀį": 1756,
      "æľīåħ³": 1757,
      "æµª": 1758,
      "å³": 1759,
      "ç²ī": 1760,
      "åľ¨è¿Ļä¸ª": 1761,
      "æ©ĻåŃĲ": 1762,
      "å®¶åºŃ": 1763,
      "ä½ľèĢħ": 1764,
      "è¯ĹæŃĮ": 1765,
      "åįĥ": 1766,
      "åĮ»çĸĹ": 1767,
      "èĭ±è¯Ń": 1768,
      "äº²": 1769,
      "ä¼ģ": 1770,
      "æīįèĥ½": 1771,
      "ä¸Ģç»Ħ": 1772,
      "us": 1773,
      "ä¸Ģé¦ĸ": 1774,
      "æ±½": 1775,
      "åĵģçīĮ": 1776,
      "åį°": 1777,
      "ot": 1778,
      "AI": 1779,
      "éĺ¿": 1780,
      "ĠB": 1781,
      "çĶµåŃĲ": 1782,
      "èĥĮ": 1783,
      "ge": 1784,
      "èĩªåĬ¨": 1785,
      "çİ°ä»£": 1786,
      "--": 1787,
      "åıĹåĪ°": 1788,
      "ä½ĵéªĮ": 1789,
      "è¯Ńæ³ķ": 1790,
      "å·ŀ": 1791,
      "åº§": 1792,
      "çļĦæİ": 1793,
      "åª": 1794,
      "ul": 1795,
      "åĩĨå¤ĩ": 1796,
      "æ¢¦": 1797,
      "åįĬ": 1798,
      "çļĦæĻ": 1799,
      "åı¯èĥ½ä¼ļ": 1800,
      "çĶŁçī©": 1801,
      "éĻ¢": 1802,
      "æŁĵ": 1803,
      "ä½ı": 1804,
      "åľŁ": 1805,
      "è¿İ": 1806,
      "à¸": 1807,
      "æ¯ıå¤©": 1808,
      "èĪĴéĢĤ": 1809,
      "èĳĹåĲį": 1810,
      "ç¾İä¸½": 1811,
      "ä¸ºäºĨ": 1812,
      "æ°ĶåĢĻ": 1813,
      "çļĦæµ": 1814,
      "éĺ³åħī": 1815,
      "æĿĤ": 1816,
      "èĦĳ": 1817,
      "èī¯": 1818,
      "åĢĭ": 1819,
      "int": 1820,
      "ä½ľåĵģ": 1821,
      "æĬķ": 1822,
      "ĳæĪĺ": 1823,
      "å¹¿æ³Ľ": 1824,
      "ç»ĵæŀĦ": 1825,
      "ä½įç½®": 1826,
      "éĺħè¯»": 1827,
      "æ»©": 1828,
      "çļĦæ¯": 1829,
      "çļĦéĹ®é¢ĺ": 1830,
      "æ²³": 1831,
      "åĩ½": 1832,
      "æ´²": 1833,
      "çī¹å¾ģ": 1834,
      "Ġyou": 1835,
      "ç¬¬äºĮ": 1836,
      "éª¤": 1837,
      "åºķ": 1838,
      "å®ĥä»¬çļĦ": 1839,
      "éŀ": 1840,
      "è¿Ļä¸ªéĹ®é¢ĺ": 1841,
      "Ġx": 1842,
      "è¯¦ç»Ĩ": 1843,
      "éģĩ": 1844,
      "ig": 1845,
      "åħĥç´ł": 1846,
      "åįĪ": 1847,
      "æĶ¯æĮģ": 1848,
      "Python": 1849,
      "å¦Ĥä¸ĭ": 1850,
      "é¢Ŀ": 1851,
      "å¼Ĥ": 1852,
      "åħħæ»¡": 1853,
      "æĢ»ç»ĵ": 1854,
      "æīĭæľº": 1855,
      "åĪĨåĪ°": 1856,
      "æŃ¥éª¤": 1857,
      "ĠĠ": 1858,
      "ãģ": 1859,
      "é¢Ĺç³ĸæŀľ": 1860,
      "if": 1861,
      "æĪĳä»¬éľĢè¦ģ": 1862,
      "ä»¥ä¸ĭæĺ¯ä¸Ģéģĵ": 1863,
      "çļĦæ¸": 1864,
      "Ġdo": 1865,
      "é¢Ħæµĭ": 1866,
      "äº«åıĹ": 1867,
      "æĻ®": 1868,
      "äº¤éĢļ": 1869,
      "æĭ¿": 1870,
      "åĩĨç¡®": 1871,
      "ä½¿åħ¶": 1872,
      "å°ıåŃ¦æķ°åŃ¦é¢ĺ": 1873,
      "ch": 1874,
      "çīĪ": 1875,
      "åĲįåŃĹ": 1876,
      "ä»¥ä¸ĭæĺ¯ä¸Ģéģĵå°ıåŃ¦æķ°åŃ¦é¢ĺ": 1877,
      "èĪŀ": 1878,
      "å°ıæĹ¶": 1879,
      ".\"": 1880,
      "ä¹īè¯į": 1881,
      "éĩĮæľī": 1882,
      "æĪĳåı¯ä»¥": 1883,
      "çªģ": 1884,
      "çļĦåı¥åŃĲ": 1885,
      "åŁºäºİ": 1886,
      "ä»¥ä¸ĭæĺ¯": 1887,
      "ç¼ĸè¾ĳ": 1888,
      "ä¸ºæĤ¨": 1889,
      "200": 1890,
      "åľĨ": 1891,
      "ran": 1892,
      "çľ¼": 1893,
      "åĩ½æķ°": 1894,
      "å±ŀäºİ": 1895,
      "éĤ®": 1896,
      "ç§ĺ": 1897,
      "æķ°ä¸º": 1898,
      "æħ¢": 1899,
      "èĲ¨": 1900,
      "ol": 1901,
      "è·Ŀ": 1902,
      "æ·»": 1903,
      "å°ļ": 1904,
      "åĵĪ": 1905,
      "è¯¢": 1906,
      "ĠO": 1907,
      "æİ§åĪ¶": 1908,
      "éĶĢåĶ®": 1909,
      "å¤§åĪ©": 1910,
      "è®Ńç»ĥ": 1911,
      "ä¸°": 1912,
      "éģ¿åħį": 1913,
      "èĸ": 1914,
      "æ¤įçī©": 1915,
      "åŃĹç¬¦": 1916,
      "ä¸Ńå¿ĥ": 1917,
      "çģµ": 1918,
      "è·³": 1919,
      "çĽĬ": 1920,
      "è±Ĩ": 1921,
      "éŀĭ": 1922,
      "çĩ": 1923,
      "åĩ»": 1924,
      "ä»£è¡¨": 1925,
      "æĥ³è¦ģ": 1926,
      "æŃĮæĽ²": 1927,
      "çľĭåĪ°": 1928,
      "ä»·åĢ¼": 1929,
      "æĹ¶åĢĻ": 1930,
      "å©": 1931,
      "ä¸Ģåıª": 1932,
      "Ġ9": 1933,
      "æĽ´å¥½åľ°": 1934,
      "ä»ĸä»¬çļĦ": 1935,
      "æĲŃ": 1936,
      "èĹ": 1937,
      "ä¸ºä»Ģä¹Ī": 1938,
      "å®¢æĪ·": 1939,
      "å®ļçļĦ": 1940,
      "æĢ§åĴĮ": 1941,
      "ä»ĺ": 1942,
      "ç¥¨": 1943,
      "åıĮ": 1944,
      "çļĦæĥħæĦŁ": 1945,
      "âĢĶ": 1946,
      "25": 1947,
      "èĮ¶": 1948,
      "éĩįè¦ģçļĦ": 1949,
      "åĬŀ": 1950,
      "çļĦç³": 1951,
      "æĸĩåŃĹ": 1952,
      "ä¼¤": 1953,
      "å½ķ": 1954,
      "åĲįè¯į": 1955,
      "é¹": 1956,
      "åĪĹåĩº": 1957,
      "ir": 1958,
      "éħ±": 1959,
      "åį³åı¯": 1960,
      "æİĴåºı": 1961,
      "ä¼ĳ": 1962,
      "èĻ½": 1963,
      "æ¯Ľ": 1964,
      "åĪĽå»º": 1965,
      "çļĦæĸĩç«ł": 1966,
      "ä¸ĢæŃ¥": 1967,
      "åĨĽ": 1968,
      "Ġj": 1969,
      "çļĦçŁ": 1970,
      "æĿ¡ä»¶": 1971,
      "åĿļ": 1972,
      "èķ": 1973,
      "æ¯ıä¸ªæľĭåıĭ": 1974,
      "ĠM": 1975,
      "éĩİ": 1976,
      "èĥľ": 1977,
      "åĪĿ": 1978,
      "ĠÃ·": 1979,
      "å·¥åħ·": 1980,
      "ä½³": 1981,
      "æĽ¿": 1982,
      "ä¼łç»Ł": 1983,
      "æł¹æį®ä»¥ä¸ĭ": 1984,
      "åĨ·": 1985,
      "åĳ¼": 1986,
      "æĿ¥è¯´": 1987,
      "åĽ°": 1988,
      "èĶ¬": 1989,
      "çķ¥": 1990,
      "å¦ĤæŀľæĤ¨": 1991,
      "æ¸Ĳ": 1992,
      "se": 1993,
      "ç¬ĳ": 1994,
      "æĿĥ": 1995,
      "ç¾¤": 1996,
      "çŁŃè¯Ń": 1997,
      "è¯·ä½ł": 1998,
      "å¹»": 1999,
      "é¢ĳ": 2000,
      "éĩĩçĶ¨": 2001,
      "çŃĳ": 2002,
      "Ġbe": 2003,
      "ç§»": 2004,
      "æĺ¨": 2005,
      "èĩªçĦ¶è¯Ńè¨Ģ": 2006,
      "éķ¿åº¦": 2007,
      "çŃĶæ¡Īæĺ¯": 2008,
      "æĶ¯éĵħç¬Ķ": 2009,
      "æ±½è½¦": 2010,
      "åį´": 2011,
      "000": 2012,
      "éĢŁåº¦": 2013,
      "ow": 2014,
      "ç´§": 2015,
      "å¤ıå¤©": 2016,
      "é¥Ń": 2017,
      "pr": 2018,
      "åıĺå¾Ĺ": 2019,
      "åı«": 2020,
      "èį¯": 2021,
      "ç»Ħç»ĩ": 2022,
      "è®©äºº": 2023,
      "çīĻ": 2024,
      "æĺ¯æĮĩ": 2025,
      "ä»İèĢĮ": 2026,
      "æķĻèĤ²": 2027,
      "åı¥åŃĲä¸Ń": 2028,
      "åİŁåĽł": 2029,
      "æİ¢ç´¢": 2030,
      "ç¼º": 2031,
      "éĥ¨çĶµå½±": 2032,
      "èĩªçĶ±": 2033,
      "çļĦçĶµå½±": 2034,
      "ä¸Ģæ¬¡": 2035,
      "éĢīé¡¹": 2036,
      "è®²è¿°": 2037,
      "åĿĲ": 2038,
      "æĢĿèĢĥ": 2039,
      "éĿ¢ç§¯": 2040,
      "çļĦæķħäºĭ": 2041,
      "å»ºçŃĳ": 2042,
      "è¿Ļç¯ĩæĸĩç«ł": 2043,
      "ä¸Ģåħ±æľī": 2044,
      "èĶ¬èıľ": 2045,
      "çī©åĵģ": 2046,
      "åĨĻä¸Ģç¯ĩ": 2047,
      "éĵģ": 2048,
      "åħĭåĬĽ": 2049,
      "åħ°": 2050,
      "å¥¥": 2051,
      "æŃ¢": 2052,
      "æĮģç»Ń": 2053,
      "å°Ħ": 2054,
      "å·§åħĭåĬĽ": 2055,
      "å¨ģ": 2056,
      "ä¸²": 2057,
      "est": 2058,
      "ct": 2059,
      "æĸ¹ç¨ĭ": 2060,
      "ke": 2061,
      "ä¼ģä¸ļ": 2062,
      "é¡»": 2063,
      "æĿ¿": 2064,
      "çĶľ": 2065,
      "åľºæĻ¯": 2066,
      "ĠÃĹ": 2067,
      "åºľ": 2068,
      "å¯»æī¾": 2069,
      "è¡¨æĺİ": 2070,
      "èĻ½çĦ¶": 2071,
      "ĠP": 2072,
      "çĽĸ": 2073,
      "è°ģ": 2074,
      "åŃ©åŃĲ": 2075,
      "16": 2076,
      "åĨ¬": 2077,
      "åį«": 2078,
      "éĢĲ": 2079,
      "å½¢å¼ı": 2080,
      "åĪ¤æĸŃ": 2081,
      "æ±ĩ": 2082,
      "ï¼īãĢĤ": 2083,
      "åĢĴ": 2084,
      "çļĦæĸĩæľ¬": 2085,
      "çļĦç¬": 2086,
      "ä¼¦": 2087,
      "åı¯ä»¥ä½¿çĶ¨": 2088,
      "æĥĬ": 2089,
      "ç®±": 2090,
      "æ´Ĺ": 2091,
      "åĪĽéĢł": 2092,
      "ç³ķ": 2093,
      "ä¾Ŀ": 2094,
      "å»ºç«ĭ": 2095,
      "è®©æĪĳ": 2096,
      "æŁĶ": 2097,
      "ç®ĢçŁŃ": 2098,
      "ç¤¼": 2099,
      "çº³": 2100,
      "æĸ¹æ¡Ī": 2101,
      "ä¸įä»ħ": 2102,
      "è·Ŀç¦»": 2103,
      "è¿Ļæĺ¯ä¸Ģ": 2104,
      "ist": 2105,
      "çĤº": 2106,
      "çļĦå°ı": 2107,
      "çļĦç³ĸ": 2108,
      "éĢı": 2109,
      "ç¤¾äº¤": 2110,
      "ra": 2111,
      "Ġ0": 2112,
      "å¼Ģåıĳ": 2113,
      "é¾Ļ": 2114,
      "èĪ¬": 2115,
      "æĭŁ": 2116,
      "ä¸Ģä½į": 2117,
      "è¯´æĺİ": 2118,
      "çī¹çĤ¹": 2119,
      "è¡ĮæĺŁ": 2120,
      "åĪĨåĪ«": 2121,
      "åħ³æ³¨": 2122,
      "æ°§": 2123,
      "æĢ§çļĦ": 2124,
      "ä¸įä¼ļ": 2125,
      "ä¸ĭæĿ¥": 2126,
      "çīĽå¥¶": 2127,
      "é¥¼": 2128,
      "åĩºäºĨ": 2129,
      "è¿Ļæĺ¯ä¸Ģä¸ª": 2130,
      "çļĦæĦŁ": 2131,
      "çļĦæĬĢ": 2132,
      "åĽłç´ł": 2133,
      "Ġde": 2134,
      "çĪ±æĥħ": 2135,
      "è½¬æį¢": 2136,
      "çİ¯ä¿Ŀ": 2137,
      "çļĦåıĳå±ķ": 2138,
      "éĵ¶": 2139,
      "ç»ıåħ¸": 2140,
      "éĽª": 2141,
      "çºª": 2142,
      "å½ĵåľ°": 2143,
      "åĬª": 2144,
      "åªĴ": 2145,
      "æī§": 2146,
      "éļıçĿĢ": 2147,
      "å·¨": 2148,
      "ªæĸ½": 2149,
      "ä¸´": 2150,
      "åı¯ä»¥å¸®åĬ©": 2151,
      "æĬĺ": 2152,
      "å®ĩ": 2153,
      "14": 2154,
      "è´Ńçī©": 2155,
      "åĲ¸å¼ķ": 2156,
      "æĺ¯åľ¨": 2157,
      "é¸¡èĽĭ": 2158,
      "éĸ": 2159,
      "ä¹°äºĨ": 2160,
      "é£Łåĵģ": 2161,
      "è¯Ħä»·": 2162,
      "çļĦéĩįè¦ģ": 2163,
      "æĮĳæĪĺ": 2164,
      "æķ´ä¸ª": 2165,
      "ç»ĦæĪĲ": 2166,
      "ä¸°å¯Į": 2167,
      "çļĦæĢ»": 2168,
      "æĶ¹åıĺ": 2169,
      "æĪĳåĸľæ¬¢": 2170,
      "åĬªåĬĽ": 2171,
      "çĸĳ": 2172,
      "çļĦæĶ": 2173,
      "è®¾å¤ĩ": 2174,
      "Ġst": 2175,
      "æ¸©åº¦": 2176,
      "éĤ®ä»¶": 2177,
      "å¾Īå¥½": 2178,
      "é¥®é£Ł": 2179,
      "èµĦæºĲ": 2180,
      "çĨĬ": 2181,
      "å³°": 2182,
      "åıĤåĬł": 2183,
      "åı¯ä»¥éĢļè¿ĩ": 2184,
      "è´¢": 2185,
      "Ġåľ¨": 2186,
      "éĴĪ": 2187,
      "ä»¤äºº": 2188,
      "éħ¸": 2189,
      "Ġla": 2190,
      "Ġå°Ĩ": 2191,
      "æķĪçİĩ": 2192,
      "å±Ģ": 2193,
      "æ·»åĬł": 2194,
      "ä»į": 2195,
      "å¥Ĺ": 2196,
      "ï¼ĮâĢľ": 2197,
      "èĦļ": 2198,
      "çļĦæ°´": 2199,
      "å½¢æĪĲ": 2200,
      "ĠT": 2201,
      "çł´": 2202,
      "åľ°åĮº": 2203,
      "ç±»åĪ«": 2204,
      "11": 2205,
      "çĽĺ": 2206,
      "æĲľ": 2207,
      "ï¼ļ\"": 2208,
      "å¹¸": 2209,
      "å¯¹è¯Ŀ": 2210,
      "ä¸¥": 2211,
      "çº¢èī²": 2212,
      "äººæķ°": 2213,
      "çļĦæķ°éĩı": 2214,
      "åįļ": 2215,
      "æľīä¸Ģä¸ª": 2216,
      "èĿ": 2217,
      "èģļ": 2218,
      "Ġ20": 2219,
      "çļĦå¤©æ°Ķ": 2220,
      "æł¸": 2221,
      "äºĭæĥħ": 2222,
      "åĨ³å®ļ": 2223,
      "ä¸ĬæľĢ": 2224,
      "å¿Ĺ": 2225,
      "èĤ¡": 2226,
      "åįı": 2227,
      "åı¦å¤ĸ": 2228,
      "ç¹": 2229,
      "ä¸ĭéĿ¢çļĦ": 2230,
      "æ±ģ": 2231,
      "é¥°": 2232,
      "çļĦä¸»è¦ģ": 2233,
      "ä½łèĥ½": 2234,
      "åĪĽä½ľ": 2235,
      "ä¿ĥ": 2236,
      "æľ«": 2237,
      "è¿·": 2238,
      "è£¤": 2239,
      "èĢĮä¸Ķ": 2240,
      "çī¹åĪ«": 2241,
      "éĶħ": 2242,
      "æ··": 2243,
      "åħ¬å¼ı": 2244,
      "Ġv": 2245,
      "æľĹ": 2246,
      "ç¿»è¯ĳæĪĲä¸Ńæĸĩ": 2247,
      "é¡ºåºı": 2248,
      "æ°ĶåĢĻåıĺåĮĸ": 2249,
      "ç»Ļå®ļä¸Ģä¸ª": 2250,
      "çļĦæĸ¹æ³ķ": 2251,
      "ä¹³": 2252,
      "æĽ´å¤ļçļĦ": 2253,
      "ï¼īï¼Į": 2254,
      "çº½": 2255,
      "ç¼ĵ": 2256,
      "ä¸ĵä¸ļ": 2257,
      "æĭ¼": 2258,
      "æ±ī": 2259,
      "çĨŁ": 2260,
      "æĸĩåŃ¦": 2261,
      "è¢ĭ": 2262,
      "ç«¯": 2263,
      "çļĦçĪ": 2264,
      "è§Ĵèī²": 2265,
      "æ¬¢è¿İ": 2266,
      "åŃ¦æł¡": 2267,
      "èĥ½æºĲ": 2268,
      "çī©è´¨": 2269,
      "æ´ŀ": 2270,
      "åŁºæľ¬": 2271,
      "å½ĵçĦ¶åı¯ä»¥": 2272,
      "ä¸Ģå¤©": 2273,
      "å°į": 2274,
      "çĿ¡": 2275,
      "é«ĺçļĦ": 2276,
      "åĭĩ": 2277,
      "æĳĦ": 2278,
      "çĸ«": 2279,
      "çĤĴ": 2280,
      "ç»ıåİĨ": 2281,
      "åĢĳ": 2282,
      "é¡¹çĽ®": 2283,
      "24": 2284,
      "å¥³çĶŁ": 2285,
      "ç»§": 2286,
      "ä¸ĢçĽ´": 2287,
      "å¤įæĿĤ": 2288,
      "ç»Ŀ": 2289,
      "åĸĿ": 2290,
      "éĩĩåıĸ": 2291,
      "æĺİå¤©": 2292,
      "ä¼´": 2293,
      "æĵį": 2294,
      "æ²ī": 2295,
      "éĢĻ": 2296,
      "çĥĪ": 2297,
      "æķĪæŀľ": 2298,
      "é¾Ħ": 2299,
      "æĹ¶å°ļ": 2300,
      "çĽĲ": 2301,
      "å®ĺ": 2302,
      "çļĦæı": 2303,
      "åı³": 2304,
      "æĿ¥è¶Ĭ": 2305,
      "èŃ¦": 2306,
      "æ¶ī": 2307,
      "å¿ħé¡»": 2308,
      "ä¹ħ": 2309,
      "èĪª": 2310,
      "å¾Ĺåĩº": 2311,
      "æ¥¼": 2312,
      "Ġon": 2313,
      "èĩªçĦ¶è¯Ńè¨Ģå¤ĦçĲĨ": 2314,
      "è¶ĬæĿ¥è¶Ĭ": 2315,
      "é©¶": 2316,
      "ä½įäºİ": 2317,
      "æĪĳä¼ļ": 2318,
      "Ġfor": 2319,
      "æĽ¾": 2320,
      "è¡¡": 2321,
      "è¡Ģ": 2322,
      "å·¦": 2323,
      "åŃ£èĬĤ": 2324,
      "æ¬§": 2325,
      "åŃ¤": 2326,
      "ç¯®": 2327,
      "å¸¸è§ģ": 2328,
      "è¿ĻéĩĮ": 2329,
      "ly": 2330,
      "Ġqu": 2331,
      "çĶ·çĶŁ": 2332,
      "åĬĽåĴĮ": 2333,
      "ç¾İé£Ł": 2334,
      "æĬ¥éģĵ": 2335,
      "çµ": 2336,
      "éĻ¤ä»¥": 2337,
      "çº¸": 2338,
      "æŃ»": 2339,
      "çĭ¬çī¹": 2340,
      "éĻĪ": 2341,
      "ç¾İåħĥ": 2342,
      "éŃĶ": 2343,
      "éĩįæĸ°": 2344,
      "..": 2345,
      "è°¢è°¢": 2346,
      "çļĦç³ĸæŀľ": 2347,
      "çĸ¾": 2348,
      "Ġ12": 2349,
      "å®½": 2350,
      "å®ł": 2351,
      "éĥ½æľī": 2352,
      "åĩºæĿ¥": 2353,
      "å¤«": 2354,
      "print": 2355,
      "è¿ĺåı¯ä»¥": 2356,
      "æ½®": 2357,
      "å¾Ħ": 2358,
      "æľµ": 2359,
      "å¸ģ": 2360,
      "å¤§éĩı": 2361,
      "èĨ": 2362,
      "çĽ¸åĲĮ": 2363,
      "à®": 2364,
      "ä»¥ä¸Ĭ": 2365,
      "å¦Ī": 2366,
      "åıªæľī": 2367,
      "åģľ": 2368,
      "çĶµè§Ĩ": 2369,
      "å¹´è½»": 2370,
      "è¸": 2371,
      "é¡¿": 2372,
      "çĶŁæĢģ": 2373,
      "ç£": 2374,
      "çĶŁäº§": 2375,
      "åŃĹç¬¦ä¸²": 2376,
      "åĨľ": 2377,
      "æĺ¨å¤©": 2378,
      "ä¸ĭåĪĹ": 2379,
      "ä¼ļè®®": 2380,
      "çĽĳ": 2381,
      "æĶ¹åĸĦ": 2382,
      "åªĴä½ĵ": 2383,
      "è´£": 2384,
      "æķĳ": 2385,
      "è§ĤçĤ¹": 2386,
      "çħ®": 2387,
      "æ°¸": 2388,
      "æ¯Ĵ": 2389,
      "æĦī": 2390,
      "ç»ª": 2391,
      "çŁ¥è¯Ĩ": 2392,
      "çºł": 2393,
      "æĦıå¤§åĪ©": 2394,
      "åķĬ": 2395,
      "çĵ¶": 2396,
      "ith": 2397,
      "çĽ¸ä¼¼": 2398,
      "æĶ¿åºľ": 2399,
      "æļĹ": 2400,
      "è¿Ļéĥ¨çĶµå½±": 2401,
      "çº½çº¦": 2402,
      "æİªæĸ½": 2403,
      "çĤ¼": 2404,
      "áŀ": 2405,
      "ä»Ģä¹Īæĺ¯": 2406,
      "æĬ±": 2407,
      "å¿«éĢŁ": 2408,
      "ld": 2409,
      "æŃ£ç¡®çļĦ": 2410,
      "ä¸Ģå®ļ": 2411,
      "çļĦæ²": 2412,
      "è½¯ä»¶": 2413,
      "ä»¥ä¾¿": 2414,
      "å½¢å®¹": 2415,
      "æ£®": 2416,
      "ä»¥ä¸ĭåı¥åŃĲ": 2417,
      "åħ¬åı¸çļĦ": 2418,
      "è¡Ĺ": 2419,
      "å¿ĥçĲĨ": 2420,
      "åĬ¨è¯į": 2421,
      "æĦ¿": 2422,
      "æµĵ": 2423,
      "å®ŀéĻħ": 2424,
      "çĽ®åīį": 2425,
      "èĻļ": 2426,
      "çľģ": 2427,
      "çļĦçľ": 2428,
      "åºĵ": 2429,
      "å¥ĸ": 2430,
      "ç½ĳç«Ļ": 2431,
      "å¯Ł": 2432,
      "è´ŁéĿ¢": 2433,
      "ation": 2434,
      "æİī": 2435,
      "è®¨è®º": 2436,
      "åĶ±": 2437,
      "ç¾İåĳ³": 2438,
      "è³": 2439,
      "æ±Ł": 2440,
      "èĮĥåĽ´": 2441,
      "èķī": 2442,
      "è©": 2443,
      "ri": 2444,
      "ĠW": 2445,
      "ĠD": 2446,
      "åŁºç¡": 2447,
      "å¹³æĸ¹": 2448,
      "æĲľç´¢": 2449,
      "åı£æĦŁ": 2450,
      "åŁºç¡Ģ": 2451,
      "å°ıæĺİæīĭ": 2452,
      "åħ¶ä¸ŃçļĦ": 2453,
      "çļĦæ°Ķ": 2454,
      "åĬ¨ä½ľ": 2455,
      "åĺ": 2456,
      "æĶ¾æĿ¾": 2457,
      "æ·±åº¦": 2458,
      "æ¯ıä¸ªäºº": 2459,
      "ä½¿å¾Ĺ": 2460,
      "æĺ¯å¤ļå°ĳ": 2461,
      "è´§": 2462,
      "åĩī": 2463,
      "è¯įè¯Ń": 2464,
      "è¶ĭ": 2465,
      "éļĲ": 2466,
      "é¦Ļèķī": 2467,
      "åı¯ä»¥åľ¨": 2468,
      "çĹĩ": 2469,
      "ç»Ļåĩºä¸Ģä¸ª": 2470,
      "å®łçī©": 2471,
      "å¹´é¾Ħ": 2472,
      "éĹ²": 2473,
      "è·Ł": 2474,
      "å®Ļ": 2475,
      "æ³³": 2476,
      "èĽĭç³ķ": 2477,
      "æ±¡": 2478,
      "éľ²": 2479,
      "é£İéĻ©": 2480,
      "ç³»åĪĹ": 2481,
      "äººåĲį": 2482,
      "äººçī©": 2483,
      "ers": 2484,
      "æ¤Ĵ": 2485,
      "çķħ": 2486,
      "å¿ĺ": 2487,
      "ç®ĢåįķçļĦ": 2488,
      "ence": 2489,
      "ä¸įè¦ģ": 2490,
      "æµĭè¯ķ": 2491,
      "åıįåºĶ": 2492,
      "ä¾Ĩ": 2493,
      "æ»¡è¶³": 2494,
      "éº¼": 2495,
      "å¿«ä¹Ĳ": 2496,
      "å®ĩå®Ļ": 2497,
      "ä¿®æĶ¹": 2498,
      "ps": 2499,
      "è¡ĮåĬ¨": 2500,
      "ç®Ģæ´ģ": 2501,
      "åľ°çĤ¹": 2502,
      "os": 2503,
      "èģĶç³»": 2504,
      "2021": 2505,
      "è¿Ļæ®µæĸĩæľ¬": 2506,
      "èģĬ": 2507,
      "¡èĲ": 2508,
      "ä¸Ŀ": 2509,
      "è¿ĩåİ»": 2510,
      "èĥĮæĻ¯": 2511,
      "å®£": 2512,
      "èĹı": 2513,
      "æŀ¶": 2514,
      "çĦ¶èĢĮ": 2515,
      "60": 2516,
      "åĪĨæĪĲ": 2517,
      "çļĦæĮ": 2518,
      "çļĦçł": 2519,
      "æ£ĢæŁ¥": 2520,
      "è²": 2521,
      "ä¸įéĶĻ": 2522,
      "æ¸ħæĻ": 2523,
      "æ²»çĸĹ": 2524,
      "å¡Ķ": 2525,
      "éĢłæĪĲ": 2526,
      "èµı": 2527,
      "åħ´è¶£": 2528,
      "ä¸ªæľĭåıĭ": 2529,
      "å®¹æĺĵ": 2530,
      "13": 2531,
      "ç»§ç»Ń": 2532,
      "å¤ļä¸ª": 2533,
      "è®©æĪĳä»¬": 2534,
      "æĿŁ": 2535,
      "åŃ¸": 2536,
      "çļĦåºĶçĶ¨": 2537,
      "çĸ¾çĹħ": 2538,
      "åĲİçļĦ": 2539,
      "åĮ»çĶŁ": 2540,
      "è¶ħè¿ĩ": 2541,
      "é»İ": 2542,
      "å¿Ĩ": 2543,
      "å¤©ç©º": 2544,
      "row": 2545,
      "æľĿ": 2546,
      "åĨĴ": 2547,
      "ä¾ĭåŃĲ": 2548,
      "æĹı": 2549,
      "èĵĿèī²": 2550,
      "åĪĨç±»ä¸º": 2551,
      "17": 2552,
      "æ¹ĸ": 2553,
      "æĦıä¹ī": 2554,
      "ick": 2555,
      "ĠH": 2556,
      "æ£Ĵ": 2557,
      "è¿Ļä¸ªåı¥åŃĲ": 2558,
      "æķ°æį®éĽĨ": 2559,
      "åĸľæ¬¢çļĦ": 2560,
      "è¿Ķ": 2561,
      "ç¹ģ": 2562,
      "æłĩåĩĨ": 2563,
      "åı¯ä»¥çĶ¨": 2564,
      "åħ¬éĩĮ": 2565,
      "åħĥéĴ±": 2566,
      "app": 2567,
      "çļĦæľĢ": 2568,
      "ĠL": 2569,
      "åºĬ": 2570,
      "åħŃ": 2571,
      "åı£åĳ³": 2572,
      "çģ¯": 2573,
      "ant": 2574,
      "2022": 2575,
      "åĵªä¸ª": 2576,
      "æĬ½": 2577,
      "ä»¿": 2578,
      "ä¸Ĭæµ·": 2579,
      "åĪĽæĸ°": 2580,
      "ç©ºæ°Ķ": 2581,
      "è¯įæ±ĩ": 2582,
      "é¥®æĸĻ": 2583,
      "çļĦä¸»é¢ĺ": 2584,
      "ç¬¦åĲĪ": 2585,
      "ç¥ŀç§ĺ": 2586,
      "çļĦå¤§": 2587,
      "å°Ĭ": 2588,
      "è¾Ĩ": 2589,
      "äºĭå®ŀ": 2590,
      "è¶ĭåĬ¿": 2591,
      "æĴŃ": 2592,
      "ä»Ģéº¼": 2593,
      "éĿł": 2594,
      "æľīä»Ģä¹Ī": 2595,
      "çĻ»": 2596,
      "åĽ¢éĺŁ": 2597,
      "ä¸ªæ©ĻåŃĲ": 2598,
      "ç¼ĸç¨ĭ": 2599,
      "çİī": 2600,
      "æĹ¥æľ¬": 2601,
      "åİ»äºĨ": 2602,
      "çļĦæĹ¶éĹ´": 2603,
      "è´µ": 2604,
      "em": 2605,
      "åĬĽéĩı": 2606,
      "å§Ĩ": 2607,
      "æľºä¼ļ": 2608,
      "æľīå¾Īå¤ļ": 2609,
      "ç»ıéªĮ": 2610,
      "åĽłä¸ºå®ĥ": 2611,
      "æ±¤": 2612,
      "ç§ģ": 2613,
      "æĹ¨": 2614,
      "ä¼°": 2615,
      "ä½Ľ": 2616,
      "éĽ¶": 2617,
      "åĢ¼å¾Ĺ": 2618,
      "éĶ»": 2619,
      "ãĢģãĢĬ": 2620,
      "æĭĮ": 2621,
      "æ¶īåıĬ": 2622,
      "çĽĴ": 2623,
      "åģı": 2624,
      "çĥ§": 2625,
      "çļĦçĥ": 2626,
      "é©¾": 2627,
      "æķı": 2628,
      "åĪļ": 2629,
      "ab": 2630,
      "éĶ»çĤ¼": 2631,
      "éĢĶ": 2632,
      "éĿ¢åĮħ": 2633,
      "åĤ¨": 2634,
      "ĠF": 2635,
      "åĬ±": 2636,
      "å®ļä¹ī": 2637,
      "æ³ķè¯Ń": 2638,
      "èľľ": 2639,
      "çŃīäºİ": 2640,
      "è¿ĩç¨ĭä¸Ń": 2641,
      "æĦŁåıĹ": 2642,
      "çļĦæĳ": 2643,
      "çļĦç¤": 2644,
      "æŃ£éĿ¢": 2645,
      "æĤ£": 2646,
      "èĳ±": 2647,
      "ht": 2648,
      "Ġare": 2649,
      "å¤ļç§į": 2650,
      "èĤ¤": 2651,
      "åĮĢ": 2652,
      "æī¿": 2653,
      "ĠE": 2654,
      "Ġdog": 2655,
      "è¡£æľį": 2656,
      "éĨĴ": 2657,
      "æıĲä¾Ľä¸Ģä¸ª": 2658,
      "end": 2659,
      "æĵįä½ľ": 2660,
      "æĦŁè§ī": 2661,
      "åľ¨ä¸Ģèµ·": 2662,
      "éĢĤå½ĵ": 2663,
      "å²Ľ": 2664,
      "è¯»èĢħ": 2665,
      "èİĵ": 2666,
      "Ġ'": 2667,
      "æĦŁè°¢": 2668,
      "èĩ³å°ĳ": 2669,
      "è¿Ļä¸Ģ": 2670,
      "ĠâĢľ": 2671,
      "æĬĢå·§": 2672,
      "åİĺ": 2673,
      "çľł": 2674,
      "res": 2675,
      "çļĦæµ·": 2676,
      "æľĥ": 2677,
      "éĵ¾": 2678,
      "åĪĽæĦı": 2679,
      "æĬ¥åĳĬ": 2680,
      "æĽ¿æį¢": 2681,
      "ĠJ": 2682,
      "od": 2683,
      "çļĦæ®": 2684,
      "ĠG": 2685,
      "æ¦Ĥæĭ¬": 2686,
      "åį±": 2687,
      "ä¸įåı¯": 2688,
      "æľīäºĽ": 2689,
      "æİĴåĪĹ": 2690,
      "Ġit": 2691,
      "åİļ": 2692,
      "å°ıåįİ": 2693,
      "our": 2694,
      "æĻļä¸Ĭ": 2695,
      "çī©çĲĨ": 2696,
      "av": 2697,
      "åĲĪéĢĤ": 2698,
      "åĲĮä¹īè¯į": 2699,
      "èĢĲ": 2700,
      "Ġ15": 2701,
      "ç»ĥä¹ł": 2702,
      "è§īå¾Ĺ": 2703,
      "ç«¥": 2704,
      "ç»¿èī²": 2705,
      "ort": 2706,
      "ç¶": 2707,
      "åħ±æľī": 2708,
      "è¡Įä¸ļ": 2709,
      "num": 2710,
      "åĲ«ä¹ī": 2711,
      "å¹´çļĦ": 2712,
      "ex": 2713,
      "Ġ*": 2714,
      "åĵº": 2715,
      "è°±": 2716,
      "æ¸¸æ³³": 2717,
      "è¯¾": 2718,
      "æĲŃéħį": 2719,
      "ä¸Ģæł·": 2720,
      "«èĲ¨": 2721,
      "åĽ½å®¶": 2722,
      "æĸĩæľ¬è¿Ľè¡Į": 2723,
      "çļĦæĦıæĢĿ": 2724,
      "æĺŁæľŁ": 2725,
      "æ±¡æŁĵ": 2726,
      "æĺł": 2727,
      "çĶµèĦĳ": 2728,
      "æİ¢è®¨": 2729,
      "éº¦": 2730,
      "è¿Ļä¸¤ä¸ª": 2731,
      "å·´é»İ": 2732,
      "å¼ºè°ĥ": 2733,
      "ie": 2734,
      "éģĹ": 2735,
      "å°ģ": 2736,
      "èĮĦ": 2737,
      "ç¼©": 2738,
      "æ··åĲĪ": 2739,
      "40": 2740,
      "æĸ¼": 2741,
      "å¤§åŃ¦": 2742,
      "éĽħ": 2743,
      "æ»ĳ": 2744,
      "æıĲä¾ĽçļĦ": 2745,
      "éĩĳèŀį": 2746,
      "å®Ī": 2747,
      "æĭħ": 2748,
      "å°½ç®¡": 2749,
      "æĥħèĬĤ": 2750,
      "ä»İä»¥ä¸ĭ": 2751,
      "è¿Ľä¸ĢæŃ¥": 2752,
      "åĬ©äºİ": 2753,
      "åķĨåĵģæĸĩæ¡Ī": 2754,
      "æĦıæĢĿ": 2755,
      "éĢĤéĩı": 2756,
      "ãĢĭãĢģãĢĬ": 2757,
      "ç¨³": 2758,
      "æĢ§èĥ½": 2759,
      "æĹ©ä¸Ĭ": 2760,
      "åħ±åĲĮ": 2761,
      "çĽĽ": 2762,
      "ox": 2763,
      "åıĹæ¬¢è¿İ": 2764,
      "çļĦä»·æł¼": 2765,
      "ç»ıå¸¸": 2766,
      "è®¢": 2767,
      "è¯·åĳĬè¯īæĪĳ": 2768,
      "æµģè¡Į": 2769,
      "å¹¿åĳĬ": 2770,
      "ç¬¬ä¸Ģ": 2771,
      "pt": 2772,
      "æī§è¡Į": 2773,
      "äººåĳĺ": 2774,
      "é¡¾": 2775,
      "å¤ıåŃ£": 2776,
      "æĸĩæľ¬ä¸ŃçļĦ": 2777,
      "æķ£æŃ¥": 2778,
      "åĪĽå»ºä¸Ģä¸ª": 2779,
      "åģ¥èº«": 2780,
      "èģĶç½ĳ": 2781,
      "Ã©": 2782,
      "åĨł": 2783,
      "å¾ª": 2784,
      "çļĦçĭ": 2785,
      "çĽ¸åĬł": 2786,
      "æīĢæľīçļĦ": 2787,
      "æķ´æķ°": 2788,
      "å¥¹çļĦ": 2789,
      "æ¬£": 2790,
      "æĬĹ": 2791,
      "çļĦæ®µ": 2792,
      "å¹¸ç¦ı": 2793,
      "æĺ¯çĶ±": 2794,
      "pe": 2795,
      "éĻĦ": 2796,
      "èĳĹåĲįçļĦ": 2797,
      "ç¥Ŀ": 2798,
      "æ¶¦": 2799,
      "éĴĪå¯¹": 2800,
      "åĳ³éģĵ": 2801,
      "è¶³çĲĥ": 2802,
      "æĬĢèĥ½": 2803,
      "ç±į": 2804,
      "æ¡Į": 2805,
      "Ġan": 2806,
      "è°·": 2807,
      "åİĭåĬĽ": 2808,
      "åĲĪä½ľ": 2809,
      "å¼ķèµ·": 2810,
      "æ¹¿": 2811,
      "å¯Ĵ": 2812,
      "æĤ¦": 2813,
      "çļĦåľ°æĸ¹": 2814,
      "éĻįä½İ": 2815,
      "åĵºä¹³": 2816,
      "ä¹İ": 2817,
      "ä¸ŃæľĢ": 2818,
      "æıĲä¾ĽäºĨ": 2819,
      "å®«": 2820,
      "è®©ä½ł": 2821,
      "çģ¾": 2822,
      "åĳĪ": 2823,
      "oh": 2824,
      "æ´¾": 2825,
      "æľīçĿĢ": 2826,
      "èĢ³": 2827,
      "åĿ¦": 2828,
      "åĵ¥": 2829,
      "æī¾åĩº": 2830,
      "åĨ²": 2831,
      "XX": 2832,
      "åĮĸåŃ¦": 2833,
      "å¹ħ": 2834,
      "æ³¡": 2835,
      "è´Ŀ": 2836,
      "çĮ®": 2837,
      "çī©ä½ĵ": 2838,
      "åĪĨäº«": 2839,
      "é¼ĵ": 2840,
      "æ±ł": 2841,
      "Ġthat": 2842,
      "ç§Ģ": 2843,
      "ä¸ĢèĪ¬": 2844,
      "çĴ": 2845,
      "æ°Ķæ¸©": 2846,
      "æĸ¹åĲĳ": 2847,
      "æĹĭ": 2848,
      "çī¹å®ļ": 2849,
      "åĳ¼åĲ¸": 2850,
      "åĳĺå·¥": 2851,
      "å°¾": 2852,
      "åĨ³çŃĸ": 2853,
      "æ¸©æļĸ": 2854,
      "è¯Ĭ": 2855,
      "å¥ı": 2856,
      "å¦Ļ": 2857,
      "çļĦæĹ¶åĢĻ": 2858,
      "çļĦæ®µèĲ½": 2859,
      "åĽŀçŃĶéĹ®é¢ĺ": 2860,
      "ãĢĤâĢľ": 2861,
      "èħ¿": 2862,
      "èĭı": 2863,
      "èµŀ": 2864,
      "æĶ¾åħ¥": 2865,
      "ĥåľ": 2866,
      "Ġle": 2867,
      "æĬķèµĦ": 2868,
      "æ¸ħæĻ°": 2869,
      "ç»ĺ": 2870,
      "ĠçļĦ": 2871,
      "çĹĽ": 2872,
      "çļĦæĥħåĨµ": 2873,
      "åŀĥåľ": 2874,
      "åŀĥåľ¾": 2875,
      "åľ¨ä¸Ģä¸ª": 2876,
      "è¾£": 2877,
      "ä¿ĥè¿Ľ": 2878,
      "èģĮä¸ļ": 2879,
      "çļĦæĸ¹å¼ı": 2880,
      "ç§ĳå¹»": 2881,
      "æıĲåĩº": 2882,
      "çļĦæ´": 2883,
      "åĹ": 2884,
      "åĩĢ": 2885,
      "å¢ŀéķ¿": 2886,
      "ter": 2887,
      "æģĲ": 2888,
      "æľīåĬ©äºİ": 2889,
      "èĭ¦": 2890,
      "åĪĨä¸º": 2891,
      "é¼ł": 2892,
      "åıĳå¸ĥ": 2893,
      "æĢĢ": 2894,
      "åĽ½éĻħ": 2895,
      "å¹¶åľ¨": 2896,
      "çĵľ": 2897,
      "ç§ĭå¤©": 2898,
      "çĽ¸åħ³çļĦ": 2899,
      "å½ĵåīį": 2900,
      "çķª": 2901,
      "å¥³åŃ©": 2902,
      "çļĦæ³": 2903,
      "çļĦçŁŃ": 2904,
      "æĿ¥èĩª": 2905,
      "Ġk": 2906,
      "ĠÐ": 2907,
      "åį·": 2908,
      "ç¥ŀç»ı": 2909,
      "æİ¥ä¸ĭæĿ¥": 2910,
      "å¢ŀå¼º": 2911,
      "è¿ĶåĽŀ": 2912,
      "çļĦçĪ±": 2913,
      "ç§ĳåŃ¦å®¶": 2914,
      "è°ĥæķ´": 2915,
      "äº¿": 2916,
      "æĿĳ": 2917,
      "çİĽ": 2918,
      "æ¶²": 2919,
      "å°ıæĺİåĴĮ": 2920,
      "è¿ĺåī©": 2921,
      "åİĺç±³": 2922,
      "Ġover": 2923,
      "ç»ĨèĬĤ": 2924,
      "è°Ī": 2925,
      "èĩªæĪĳ": 2926,
      "è½®": 2927,
      "æį·": 2928,
      "æİĮ": 2929,
      "å°Ĩå®ĥä»¬": 2930,
      "å½¢çļĦ": 2931,
      "æļ´": 2932,
      "ä¸ĭæĸĩ": 2933,
      "äººçĶŁ": 2934,
      "èĲ¥åħ»": 2935,
      "åģļåĩº": 2936,
      "çıł": 2937,
      "ç©ºéĹ´": 2938,
      "çļĦçłĶç©¶": 2939,
      "Ġli": 2940,
      "åİŁå§ĭ": 2941,
      "ĠæĪĳ": 2942,
      "æľºåĻ¨äºº": 2943,
      "æ¸ħåįķ": 2944,
      "æ³°": 2945,
      "Ġwith": 2946,
      "å°ıæľĭåıĭ": 2947,
      "å°º": 2948,
      "æĶ¯ä»ĺ": 2949,
      "çļĦè¯Ŀ": 2950,
      "çŃ¾": 2951,
      "80": 2952,
      "è®ºæĸĩ": 2953,
      "äººå·¥æĻºèĥ½æĬĢæľ¯": 2954,
      "ä¸ĢåĲį": 2955,
      "ohn": 2956,
      "éªĳ": 2957,
      "æĸĹ": 2958,
      "æŃĮè¯į": 2959,
      "çıį": 2960,
      "æ°´å¹³": 2961,
      "æĹłè®º": 2962,
      "çĬ¶æĢģ": 2963,
      "åºĶçĶ¨ç¨ĭåºı": 2964,
      "ç»ĻäºĨ": 2965,
      "è¯ŃéŁ³": 2966,
      "åı¯æĮģç»Ń": 2967,
      "å·¥ç¨ĭ": 2968,
      "____": 2969,
      "ä¸ĸçķĮä¸ĬæľĢ": 2970,
      "çļĦæ¯Ķ": 2971,
      "ç±»ä¼¼": 2972,
      "çĽ´æİ¥": 2973,
      "çĽ´åĪ°": 2974,
      "ĠR": 2975,
      "ate": 2976,
      "æĢĿæĥ³": 2977,
      "å¹³åı°": 2978,
      "ang": 2979,
      "åľ°æĸ¹": 2980,
      "å©ļ": 2981,
      "åĵºä¹³åĬ¨çī©": 2982,
      "one": 2983,
      "æµ·æ´ĭ": 2984,
      "åı¯ä»¥è¢«": 2985,
      "æıĲåĪ°": 2986,
      "è¿Ļé¦ĸ": 2987,
      "åĩıåİ»": 2988,
      "rown": 2989,
      "åħ«": 2990,
      "åĽº": 2991,
      "æĦıåĳ³": 2992,
      "çİ°å®ŀ": 2993,
      "çĶ²": 2994,
      "æĥ¯": 2995,
      "zy": 2996,
      "éĩıåŃĲ": 2997,
      "é«ĺåº¦": 2998,
      "éĿ©": 2999,
      "è§Ĩè§ī": 3000,
      "çĦ¦": 3001,
      "Ġ/": 3002,
      "åįł": 3003,
      "çļĦçĶŁæ´»": 3004,
      "çļĦæ¦": 3005,
      "åĲĮæĹ¶ä¹Ł": 3006,
      "Ġ$": 3007,
      "çĶŁæĪĲåķĨåĵģæĸĩæ¡Ī": 3008,
      "éļıæľº": 3009,
      "å£°éŁ³": 3010,
      "åģ¶": 3011,
      "æľ¬æĸĩ": 3012,
      "çļĦæıı": 3013,
      "åĪº": 3014,
      "æĻĤ": 3015,
      "ä¹ĭåīį": 3016,
      "éª¨": 3017,
      "Ġal": 3018,
      "ä¸ľè¥¿": 3019,
      "çĻ¼": 3020,
      "æ¾": 3021,
      "å¥ĭ": 3022,
      "å±ķç¤º": 3023,
      "è¿Ľè¡ĮåĪĨç±»": 3024,
      "é»Ħèī²": 3025,
      "äºĶä¸ª": 3026,
      "èİ·åıĸ": 3027,
      "and": 3028,
      "è¡¨éĿ¢": 3029,
      "èĬ±è´¹": 3030,
      "Ġch": 3031,
      "éĹª": 3032,
      "èĥ½éĩı": 3033,
      "åħĶ": 3034,
      "çļĦæ£": 3035,
      "æı¡": 3036,
      "å¡«": 3037,
      "ç¢³": 3038,
      "åŃ¤çĭ¬": 3039,
      "æĶ¾åľ¨": 3040,
      "æĺİç¡®": 3041,
      "äº¤æµģ": 3042,
      "å¤ªéĺ³ç³»": 3043,
      "åĮĸçļĦ": 3044,
      "æĺ¾ç¤º": 3045,
      "è½¬æį¢ä¸º": 3046,
      "åĪ¶å®ļ": 3047,
      "æª": 3048,
      "çļĦæİ¨": 3049,
      "åĿĩåĮĢ": 3050,
      "ä¼ĳéĹ²": 3051,
      "é¡µ": 3052,
      "è®°å½ķ": 3053,
      "èĪ¹": 3054,
      "(\"": 3055,
      "æĸ¹éĿ¢çļĦ": 3056,
      "å§ĵ": 3057,
      "æĦıåĳ³çĿĢ": 3058,
      "ï¼ļãĢĬ": 3059,
      "æĿ°": 3060,
      "ç¡¬": 3061,
      "ill": 3062,
      "åĽ°éļ¾": 3063,
      "éĴ¢": 3064,
      "å¹³è¡¡": 3065,
      "ï¼ŁâĢĿ": 3066,
      "æ¨¡å¼ı": 3067,
      "ord": 3068,
      "çļĦç¬¬": 3069,
      "è®¿": 3070,
      "Ø§": 3071,
      "çİ°è±¡": 3072,
      "ä¸Ģæ¬¾": 3073,
      "è½»æĿ¾": 3074,
      "è¿Ļæ¬¾": 3075,
      "æĲħ": 3076,
      "æıĲåıĸåĩº": 3077,
      "åģĩè®¾": 3078,
      "å®ŀéªĮ": 3079,
      "çĶ°": 3080,
      "æľĢå¤§": 3081,
      "ä¸ºæĪĳ": 3082,
      "Ġ[": 3083,
      "æ·±åħ¥": 3084,
      "çĩĥ": 3085,
      "çĽ¸å¯¹": 3086,
      "ell": 3087,
      "ä¸Ģç¯ĩæĸĩç«ł": 3088,
      "Ġr": 3089,
      "çļĦåįķè¯į": 3090,
      "åŃĲçļĦ": 3091,
      "çļĦæ¦Ĥ": 3092,
      "æĭį": 3093,
      "åĵªéĩĮ": 3094,
      "éģį": 3095,
      "æĢ»æĺ¯": 3096,
      "å°ıæĺİå®¶": 3097,
      "åĿı": 3098,
      "éĻĪè¿°": 3099,
      "è½½": 3100,
      "åĬłä¸Ĭ": 3101,
      "ä¹¡": 3102,
      "ä¸»è¯Ń": 3103,
      "ä»ĸæĥ³": 3104,
      "æĸ¹ä¾¿": 3105,
      "Ġjum": 3106,
      "åĭķ": 3107,
      "åĲ¯": 3108,
      "çļĦæĬĢæľ¯": 3109,
      "èļ": 3110,
      "æľīä¸Ģ": 3111,
      "æ¼Ķåĳĺ": 3112,
      "è§ĦåĪĻ": 3113,
      "èĭ¥": 3114,
      "åĨĻä¸Ģä¸ª": 3115,
      "æ£®æŀĹ": 3116,
      "é©¾é©¶": 3117,
      "è¶³å¤Ł": 3118,
      "å¼¹": 3119,
      "çļĦæĻ¯": 3120,
      "éĻ¤æ³ķ": 3121,
      "ä¸ĭåįĪ": 3122,
      "é£ĺ": 3123,
      "è¯Ńè¨Ģæ¨¡åŀĭ": 3124,
      "çĤİ": 3125,
      "å®ľ": 3126,
      "åľ¨å®¶": 3127,
      "Ġne": 3128,
      "ĠN": 3129,
      "æĻ¯çĤ¹": 3130,
      "ç¾İä¸½çļĦ": 3131,
      "è¿Ļå®¶": 3132,
      "çļĦæĭ": 3133,
      "è¿ŀæİ¥": 3134,
      "å®Įåħ¨": 3135,
      "å®ģ": 3136,
      "åĪĨéħį": 3137,
      "å®¾": 3138,
      "ä¸ĸçºª": 3139,
      "ä¸ĥ": 3140,
      "æĢ¥": 3141,
      "æ·±åº¦åŃ¦ä¹ł": 3142,
      "æĬ«èĲ¨": 3143,
      "éľĩ": 3144,
      "çĶŁæĹ¥": 3145,
      "æ°ı": 3146,
      "èĩªè¡Į": 3147,
      "åħ·ä½ĵçļĦ": 3148,
      "ç¼ĸåĨĻä¸Ģä¸ª": 3149,
      "èĥ½åĲ¦": 3150,
      "ä¸Ģä¸ªäºº": 3151,
      "åĢŁ": 3152,
      "åĲ¹": 3153,
      "éļľ": 3154,
      "æĦŁåıĹåĪ°": 3155,
      "åĨĻä½ľ": 3156,
      "Ġquick": 3157,
      "åľ£": 3158,
      "æķ°çļĦ": 3159,
      "éĢĤåºĶ": 3160,
      "çļĦçģ": 3161,
      "æ¯ıäºº": 3162,
      "ç»¼": 3163,
      "èĤĮ": 3164,
      "çº¯": 3165,
      "ç¯®çĲĥ": 3166,
      "éĩįåĨĻ": 3167,
      "çĬ¯": 3168,
      "ç«ŀ": 3169,
      "èįīèİĵ": 3170,
      "éĽ·": 3171,
      "ue": 3172,
      "æĲħæĭĮ": 3173,
      "æĶ»": 3174,
      "ç¤¾äº¤åªĴä½ĵ": 3175,
      "ä¸įè¿ĩ": 3176,
      "å°ıçĭĹ": 3177,
      "å®ŀä½ĵ": 3178,
      "è¯º": 3179,
      "ï¼ļ```": 3180,
      "æ³ķåĽ½": 3181,
      "ä¸»äºº": 3182,
      "èĭ±åĽ½": 3183,
      "çĶµè¯Ŀ": 3184,
      "åıĤä¸İ": 3185,
      "ç»ŃåĨĻ": 3186,
      "éĢĲæ¸Ĳ": 3187,
      "æ´Ľ": 3188,
      "Ġpro": 3189,
      "âĢĶâĢĶ": 3190,
      "åĬłå¼º": 3191,
      "è¾¾åĪ°": 3192,
      "ä¸īè§Ĵ": 3193,
      "åĽ¾åĥı": 3194,
      "æĻ´": 3195,
      ".ãĢĬ": 3196,
      "å¿Ļ": 3197,
      "æĪ·å¤ĸ": 3198,
      "åĲĥäºĨ": 3199,
      "å·¦åı³": 3200,
      "è¿½æ±Ĥ": 3201,
      "op": 3202,
      "âĢ¦": 3203,
      "é»ĺ": 3204,
      "æ¶Īè´¹": 3205,
      "æ³ķå¾ĭ": 3206,
      "å°Ĩä»¥ä¸ĭåı¥åŃĲ": 3207,
      "åĢį": 3208,
      "åķĨä¸ļ": 3209,
      "åºĶè¯¥æĺ¯": 3210,
      "çķªèĮĦ": 3211,
      "ä¸Ģåı¥è¯Ŀ": 3212,
      "å¡ĳ": 3213,
      "Ġbrown": 3214,
      "æľĢä½³": 3215,
      "éĢ»": 3216,
      "æĽ´å¥½çļĦ": 3217,
      "æĹ¥å¸¸": 3218,
      "äºĴèģĶç½ĳ": 3219,
      "ä¹łæĥ¯": 3220,
      "è¡¨æł¼": 3221,
      "ere": 3222,
      "Ġcom": 3223,
      "Th": 3224,
      "ãĤ": 3225,
      "Ġfox": 3226,
      "Ġwh": 3227,
      "æŃī": 3228,
      "åıĸå¾Ĺ": 3229,
      "å¥³æĢ§": 3230,
      "è¥¿çıŃ": 3231,
      "è¥¿çıŃçīĻ": 3232,
      "de": 3233,
      "çĶ¨çļĦ": 3234,
      "ä»įçĦ¶": 3235,
      "ç»ķ": 3236,
      "èľĤ": 3237,
      "ç¿»è¯ĳæĪĲèĭ±æĸĩ": 3238,
      "ä¹¦ç±į": 3239,
      "æµ·æ»©": 3240,
      "ç§°ä¸º": 3241,
      "å¹³åĿĩåĢ¼": 3242,
      "Ġlazy": 3243,
      "45": 3244,
      "éĩĮçļĦ": 3245,
      "åŁ¹": 3246,
      "ãĢģâĢľ": 3247,
      "ç»ĵåĲĪ": 3248,
      "è¹": 3249,
      "çĶ¨æĿ¥": 3250,
      "æ¯«": 3251,
      "ä¸¥éĩį": 3252,
      "æ·±åĪ»": 3253,
      "æĹ§": 3254,
      "èĤ¯": 3255,
      "å´": 3256,
      "çĽ¸äºĴ": 3257,
      "æľīè¶£çļĦ": 3258,
      "çı¾": 3259,
      "è°ĵ": 3260,
      "åı¯ä»¥å¾ĹåĪ°": 3261,
      "å¼łä¸ī": 3262,
      "å¹ķ": 3263,
      "æģ¶": 3264,
      "çªĹ": 3265,
      "ä¹Ŀ": 3266,
      "æ¦Ĥå¿µ": 3267,
      "è¡¥": 3268,
      "æī©": 3269,
      "çĥŁ": 3270,
      "æĪĲè¯Ń": 3271,
      "ç¬¬ä¸Ģä¸ª": 3272,
      "æĭ¼åĨĻ": 3273,
      "åĲĮåŃ¦": 3274,
      "éĢ»è¾ĳ": 3275,
      "æĪ¿éĹ´": 3276,
      "ä¸Ģå®¶": 3277,
      "çŃĸçķ¥": 3278,
      "çļĦæııè¿°": 3279,
      "ç»©": 3280,
      "èĲ¥éĶĢ": 3281,
      "èī²å½©": 3282,
      "ç¾İå¥½çļĦ": 3283,
      "ä¼ĺåĮĸ": 3284,
      "æĸ°é²ľ": 3285,
      "å®ĥæĺ¯": 3286,
      "åºĶå¯¹": 3287,
      "é»ĳæ´ŀ": 3288,
      "åı¯èĥ½æĺ¯": 3289,
      "å½¢å®¹è¯į": 3290,
      "ä¸Ģæľ¬": 3291,
      "æľºæŀĦ": 3292,
      "\"ï¼Į": 3293,
      "åĳ¨åĽ´": 3294,
      "Ġhe": 3295,
      "ook": 3296,
      "ag": 3297,
      "ak": 3298,
      "å®Įæķ´": 3299,
      "éŁ©": 3300,
      "åıĺæļĸ": 3301,
      "Ġun": 3302,
      "ç»ıè¿ĩ": 3303,
      "90": 3304,
      "æľīå¤ļå°ĳ": 3305,
      "çĭ¬çī¹çļĦ": 3306,
      "éº»": 3307,
      "åįĸ": 3308,
      "é£ŁæĿĲ": 3309,
      "éĿŀå¸¸å¥½": 3310,
      "æĺ¯ä¸Ģéĥ¨": 3311,
      "çŁŃæĸĩ": 3312,
      "èĦ±": 3313,
      "æ·¡": 3314,
      "èĢģå¸Ī": 3315,
      "Ġen": 3316,
      "èĸĦ": 3317,
      "ç¿°": 3318,
      "ç¬¬ä¸ī": 3319,
      "æĪĲéķ¿": 3320,
      "ä½łéľĢè¦ģ": 3321,
      "å°Ĩä¼ļ": 3322,
      "èĻ«": 3323,
      "å¤§å°ı": 3324,
      "æĢ»ç»Ł": 3325,
      "åħ¶æ¬¡": 3326,
      "éĥģ": 3327,
      "ç½ª": 3328,
      "å°¤": 3329,
      "åĴĮåħ¶ä»ĸ": 3330,
      "åł¡": 3331,
      "è¿Ļæľ¬ä¹¦": 3332,
      "æĸ°éĹ»æĬ¥éģĵ": 3333,
      "è¿ª": 3334,
      "æł·çļĦ": 3335,
      "500": 3336,
      "ci": 3337,
      "è¯Ńåı¥": 3338,
      "è¯ĬæĸŃ": 3339,
      "±ä¹Ĳ": 3340,
      "åīįå¾Ģ": 3341,
      "æ·ĭ": 3342,
      "æ½ľ": 3343,
      "å¤§èĩªçĦ¶": 3344,
      "åħ¬åħ±": 3345,
      "éł": 3346,
      "à¦": 3347,
      "'s": 3348,
      "æĺ¥å¤©": 3349,
      "æµ®": 3350,
      "éķĩ": 3351,
      "ç»ĵè®º": 3352,
      "æľĢå¤ļ": 3353,
      "éŃĶæ³ķ": 3354,
      "çĲĨè®º": 3355,
      "æķ¢": 3356,
      "éĢĴ": 3357,
      "é«ĺåħ´": 3358,
      "ç¾İçļĦ": 3359,
      "é½": 3360,
      "äº¡": 3361,
      "æĪĲæľ¬": 3362,
      "è·ĳæŃ¥": 3363,
      "æĤ¨éľĢè¦ģ": 3364,
      "Ġä¸ª": 3365,
      "çĶ³": 3366,
      "\",": 3367,
      "è°ĥæŁ¥": 3368,
      "çļĦå»ºè®®": 3369,
      "çĬ¶åĨµ": 3370,
      "ä½łå¥½": 3371,
      "ä¹ĭåĲİ": 3372,
      "æŁĲä¸ª": 3373,
      "ä¸įçŁ¥éģĵ": 3374,
      "ess": 3375,
      "iz": 3376,
      "è¯Ħä¼°": 3377,
      "å°ıçĮ«": 3378,
      "æĥħç»ª": 3379,
      "é¢ĦæĬ¥": 3380,
      "åĬ³": 3381,
      "æĶ¹è¿Ľ": 3382,
      "æįŁ": 3383,
      "æĿ¥è§£åĨ³": 3384,
      "æıĲåįĩ": 3385,
      "èĳ¡èĲ": 3386,
      "èĳ¡èĲĦ": 3387,
      "çļĦä¸Ģä¸ª": 3388,
      "Ġme": 3389,
      "åı¤è¯Ĺ": 3390,
      "è¡¨è¾¾äºĨ": 3391,
      "ãĢĤãĢĬ": 3392,
      "âĢĿãĢģâĢľ": 3393,
      "æŃ¦": 3394,
      "çĪ¶": 3395,
      "ãĥ": 3396,
      "age": 3397,
      "åı¯çĪ±": 3398,
      "çĭĲ": 3399,
      "Ġcon": 3400,
      "åłĤ": 3401,
      "å¹¶æıĲä¾Ľ": 3402,
      "åıĺæĪĲ": 3403,
      "Ð°": 3404,
      "éĩįéĩı": 3405,
      "å¸Ŀ": 3406,
      "åıªæĺ¯": 3407,
      "Ġi": 3408,
      "å½¼": 3409,
      "åĳ¨æľ«": 3410,
      "ç¬¦åı·": 3411,
      "ä»ĸåľ¨": 3412,
      "çļĦæķ°æį®": 3413,
      "åĶĲ": 3414,
      "åı¹": 3415,
      "æĪĳæĹłæ³ķ": 3416,
      "è¿Ľåħ¥": 3417,
      "åĪ¶éĢł": 3418,
      "ä»Ķ": 3419,
      "è¿ĺéľĢè¦ģ": 3420,
      "ç§»åĬ¨": 3421,
      "è¿Ĳç®Ĺ": 3422,
      "æĿĢ": 3423,
      "å£®": 3424,
      "æĩĴ": 3425,
      "ä¸Ĭä¸ĭæĸĩ": 3426,
      "ä¸Ńæľī": 3427,
      "æķ¬": 3428,
      "çļĦç©": 3429,
      "ä¸Ĭåįĩ": 3430,
      "ult": 3431,
      "out": 3432,
      "æīĢéľĢ": 3433,
      "æĪĳéľĢè¦ģ": 3434,
      "åľ¨çº¿": 3435,
      "å¤ªç©º": 3436,
      "éĥ½ä¼ļ": 3437,
      "åº¦åĴĮ": 3438,
      "é¡¶": 3439,
      "çļĦå¥½": 3440,
      "ore": 3441,
      "åĨĴéĻ©": 3442,
      "åĢĴåħ¥": 3443,
      "ä¸ĢæĿ¡": 3444,
      "èĦĤ": 3445,
      "çĭ¸": 3446,
      "æĥł": 3447,
      "ç¾Ĭ": 3448,
      "Ġpl": 3449,
      "ight": 3450,
      "åįģåĪĨ": 3451,
      "çİ©åħ·": 3452,
      "for": 3453,
      "çľŁæŃ£": 3454,
      "éĿ¢ä¸´": 3455,
      "åīĤ": 3456,
      "çº¦ç¿°": 3457,
      "Ġjumps": 3458,
      "èĥ¡": 3459,
      "åĲĪçĲĨ": 3460,
      "å±ķçİ°": 3461,
      "æµģçķħ": 3462,
      "ä¸»ä¹ī": 3463,
      "è¿¹": 3464,
      "å¤§å®¶": 3465,
      "éģĵå¾·": 3466,
      "è§¦": 3467,
      "æľĢé«ĺ": 3468,
      "èĬĿ": 3469,
      "çĶ·åŃ©": 3470,
      "åĳĪçİ°": 3471,
      "ry": 3472,
      "æĶ¿çŃĸ": 3473,
      "çļĦé£Łçī©": 3474,
      "èıľåįķ": 3475,
      "æ°§åĮĸ": 3476,
      "çļĦåİĨåı²": 3477,
      "ä¼½": 3478,
      "çĽ®çļĦåľ°": 3479,
      "âĦ": 3480,
      "èĬ±åĽŃ": 3481,
      "çªģçĦ¶": 3482,
      "æİ¥åıĹ": 3483,
      "è¯ĦåĪĨ": 3484,
      "æĮ¥": 3485,
      "çĹħæ¯Ĵ": 3486,
      "èĴľ": 3487,
      "éķľ": 3488,
      "åĬĽçļĦ": 3489,
      "æĦıè¯Ĩ": 3490,
      "è£Ļ": 3491,
      "åĪ°è¾¾": 3492,
      "ç»ĦåĲĪ": 3493,
      "å±ĭ": 3494,
      "åºĨ": 3495,
      "ä½ĵèĤ²": 3496,
      "çĪ¬": 3497,
      "å®¶äºº": 3498,
      "ine": 3499,
      "GP": 3500,
      "èĩªè¡Įè½¦": 3501,
      "åĢ¾": 3502,
      "å«": 3503,
      "åŃĲéĩĮ": 3504,
      "ç¿»è¯ĳæĪĲæ³ķè¯Ń": 3505,
      "è§£åĨ³æĸ¹æ¡Ī": 3506,
      "ç»Ļä½ł": 3507,
      "æ®Ĭ": 3508,
      "ure": 3509,
      "çļĦè¯ĹæŃĮ": 3510,
      "èĽĭçĻ½": 3511,
      "ng": 3512,
      "åħ³éĶ®ä¿¡æģ¯": 3513,
      "å¿ħè¦ģ": 3514,
      "æĬ±æŃī": 3515,
      "âĦĥ": 3516,
      "é«ĺæķĪ": 3517,
      "çļĦéŁ³ä¹Ĳ": 3518,
      "æ¡£": 3519,
      "è£ħé¥°": 3520,
      "å½Ĵç±»": 3521,
      "éļĶ": 3522,
      "è§Ĥä¼Ĺ": 3523,
      "æľīæīĢ": 3524,
      "æľīåĵªäºĽ": 3525,
      "æģ©": 3526,
      "æĺ¯ä¸Ģä½į": 3527,
      "çĪ½": 3528,
      "ext": 3529,
      "çĽ¸ä¿¡": 3530,
      "çľŁçļĦ": 3531,
      "ä¼Ĭ": 3532,
      "æ¼Ĥ": 3533,
      "å®īæİĴ": 3534,
      "éĺµ": 3535,
      "iv": 3536,
      "å¯¿": 3537,
      "æĤ²": 3538,
      "ç¨ĭåº¦": 3539,
      "entence": 3540,
      "å°ıé¸Ł": 3541,
      "å¸¸è§ģçļĦ": 3542,
      "æĮĩåĩº": 3543,
      "èĢħçļĦ": 3544,
      "æĪĳä»¬å°Ĩ": 3545,
      "ç´«": 3546,
      "çļĦç¤¾": 3547,
      "åĩºèī²": 3548,
      "è¯ļ": 3549,
      "éĹŃ": 3550,
      "èªī": 3551,
      "èİ«": 3552,
      "åįļçī©": 3553,
      "è´¥": 3554,
      "æĶ¶åħ¥": 3555,
      "æģĴ": 3556,
      "ä¸ĢæĿ¯": 3557,
      "ä¸ªæĢ§": 3558,
      "æ²Ļæ»©": 3559,
      "åıĺéĩı": 3560,
      "çĭĲçĭ¸": 3561,
      "ç»ĵæĿŁ": 3562,
      "å¡ŀ": 3563,
      "çļĦæĳĺè¦ģ": 3564,
      "çĶŁéķ¿": 3565,
      "çĭ¬ç«ĭ": 3566,
      "éĢ²": 3567,
      "Ġor": 3568,
      "æĿ¥è®¡ç®Ĺ": 3569,
      "åĽŀå®¶": 3570,
      "æĪĲä¸ºäºĨ": 3571,
      "çĽ¸åºĶ": 3572,
      "åĮ»åŃ¦": 3573,
      "ç¾İå¥½": 3574,
      "çļĦç»ĵæŀľ": 3575,
      "åı¤ä»£": 3576,
      "23": 3577,
      "æĮĩä»¤": 3578,
      "ia": 3579,
      "ç©¿çĿĢ": 3580,
      "å¾ªçİ¯": 3581,
      "äºĭçī©": 3582,
      "åĴĮä¸Ģä¸ª": 3583,
      "å¹¶ä¸į": 3584,
      "Ġnot": 3585,
      "èĬ³": 3586,
      "\"ãĢĤ": 3587,
      "çĶļ": 3588,
      "èĢĮä¸įæĺ¯": 3589,
      "çļĦæ¸©": 3590,
      "å·Ŀ": 3591,
      "Ġnum": 3592,
      "æĪĳåľ¨": 3593,
      "èĥŀ": 3594,
      "æĺ¯ä¸ŃåĽ½": 3595,
      "æĹ¢": 3596,
      "æīĺ": 3597,
      "æķ°æĺ¯": 3598,
      "ome": 3599,
      "ä¼ĺç§Ģ": 3600,
      "Ġwe": 3601,
      "å¸¦æĿ¥äºĨ": 3602,
      "è¿ĽæŃ¥": 3603,
      "æĹ¶æľŁ": 3604,
      "28": 3605,
      "å¹¶è¾ĵåĩº": 3606,
      "è§Ī": 3607,
      "å¯¸": 3608,
      "çĿĽ": 3609,
      "åĿĢ": 3610,
      "åĲī": 3611,
      "çļĦæ´»": 3612,
      "å¤ļæł·": 3613,
      "çŃīæĸ¹éĿ¢": 3614,
      "ous": 3615,
      "çĬ¬": 3616,
      "çĪĨ": 3617,
      "à¥": 3618,
      "æķ°åĪĹ": 3619,
      "Ð¾": 3620,
      "ŁéĢļ": 3621,
      "çŀ": 3622,
      "ç§įç±»": 3623,
      "çļĦç¥": 3624,
      "å§ĵåĲį": 3625,
      "\\\\": 3626,
      "Ġ30": 3627,
      "çļĦæĦŁè§ī": 3628,
      "çļĦæĸ°": 3629,
      "ave": 3630,
      "çļĦçŃĶæ¡Ī": 3631,
      "ä¹Łä¼ļ": 3632,
      "ľä¼½": 3633,
      "å¦ĤæŃ¤": 3634,
      "åī¯": 3635,
      "å¿ĥæĥħ": 3636,
      "éĻĲåĪ¶": 3637,
      "put": 3638,
      "99": 3639,
      "çļĦéĴ±": 3640,
      "å¼ºçĥĪ": 3641,
      "åıĬåħ¶": 3642,
      "åħ¨çĲĥåıĺæļĸ": 3643,
      "æĹ¶ä»£": 3644,
      "è´£ä»»": 3645,
      "äººæ°ĳ": 3646,
      "ï¼ļ'": 3647,
      "åĵ²": 3648,
      "åī©ä½Ļ": 3649,
      "ç®Ģè¦ģ": 3650,
      "æ¸¯": 3651,
      "ä¸Ĭæľī": 3652,
      "èĦ¸": 3653,
      "æīĢåľ¨": 3654,
      "çļĦæ¼": 3655,
      "è¯·ç»ĻæĪĳ": 3656,
      "æŁ¥è¯¢": 3657,
      "æĪĳå¾Ī": 3658,
      "æĹ¶åħī": 3659,
      "æ¡¥": 3660,
      "å¼Ģå¤´": 3661,
      "éĿ¢å¯¹": 3662,
      "ello": 3663,
      "éĩįå¤į": 3664,
      "çŃīé¢ĨåŁŁ": 3665,
      "èĴ¸": 3666,
      "å¹³åĿĩåĪĨç»Ļ": 3667,
      "çļĦç¼": 3668,
      "è¯Ńæ³ķéĶĻè¯¯": 3669,
      "æĥħåĨµä¸ĭ": 3670,
      "éĻĨ": 3671,
      "æª¬": 3672,
      "å¼ĥ": 3673,
      "å»¶": 3674,
      "å¤ļå°ĳéĴ±": 3675,
      "æł¼å¼ı": 3676,
      "æ¬£èµı": 3677,
      "åĵģè´¨": 3678,
      "æĺ¯çļĦ": 3679,
      "éĤ£éĩĮ": 3680,
      "å°ıçº¢æľī": 3681,
      "æµªæ¼«": 3682,
      "æŁĲäºĽ": 3683,
      "çİ°åľ¨è¯·ä½ł": 3684,
      "é»ĳèī²": 3685,
      "ime": 3686,
      "łæª¬": 3687,
      "çļĦæ¬": 3688,
      "éĤ£äºĽ": 3689,
      "ãĢĭãĢĤ": 3690,
      "æĪĺäºī": 3691,
      "è®¾ç½®": 3692,
      "é¥¼å¹²": 3693,
      "):": 3694,
      "çī¹æ®Ĭ": 3695,
      "æĢĿç»´": 3696,
      "ªæĺİ": 3697,
      "orld": 3698,
      "åĦ¿ç«¥": 3699,
      "ä¸Ģå¹´": 3700,
      "æıĲåĪ°äºĨ": 3701,
      "æĩĤ": 3702,
      "å®¶å±ħ": 3703,
      "èĤ¥": 3704,
      "å¼ĢæĶ¾": 3705,
      "æŀĿ": 3706,
      "åĶ¯": 3707,
      "æ¨¡æĭŁ": 3708,
      "åı¦ä¸Ģä¸ª": 3709,
      "çĶµåŃĲéĤ®ä»¶": 3710,
      "å°ıæĺİåĴĮå°ıçº¢": 3711,
      "çļĦç¨": 3712,
      "æİ¨çĲĨ": 3713,
      "æĳĩ": 3714,
      "éĢĢ": 3715,
      "è´¡": 3716,
      "éľĢè¦ģæ³¨æĦı": 3717,
      "å¤ľæĻļ": 3718,
      "é£İæĻ¯": 3719,
      "art": 3720,
      "ç²Ĵ": 3721,
      "',": 3722,
      "è§Ĩé¢ĳ": 3723,
      "æķ¦": 3724,
      "è§Ĥå¯Ł": 3725,
      "çĽ®çļĦ": 3726,
      "æĤł": 3727,
      "é£ŀè¡Į": 3728,
      "ä¸ģ": 3729,
      "æĻ¨": 3730,
      "ä¹Łæľī": 3731,
      "çļĦæ±": 3732,
      "æ°Ķä½ĵ": 3733,
      "åįļçī©é¦Ĩ": 3734,
      "çļĦç½": 3735,
      "èį·": 3736,
      "çĶŁæĢģç³»ç»Ł": 3737,
      "åħĶåŃĲ": 3738,
      "Ġà¤": 3739,
      "ķèī²": 3740,
      "å¾ĹåĪ°äºĨ": 3741,
      "ind": 3742,
      "å¨±ä¹Ĳ": 3743,
      "æľĢåĸľæ¬¢çļĦ": 3744,
      "æĺŁçĲĥ": 3745,
      "çļĦèĭ¹æŀľ": 3746,
      "éĻĦè¿ĳ": 3747,
      "è¡¨æ¼Ķ": 3748,
      "æĦīå¿«": 3749,
      "å¤§æ°Ķ": 3750,
      "æľĢæĸ°": 3751,
      "èį£": 3752,
      "çĶŁåŃĺ": 3753,
      "åĪĨåŃĲ": 3754,
      "æł¸å¿ĥ": 3755,
      "æ¡ĥ": 3756,
      "John": 3757,
      "æī¹": 3758,
      "çļĦæ¸¸": 3759,
      "åĩıæ³ķ": 3760,
      "åıĸåĩº": 3761,
      "èī¾": 3762,
      "è¯·æıĲä¾Ľ": 3763,
      "é¢Ħç®Ĺ": 3764,
      "Ġex": 3765,
      "åŁĥ": 3766,
      "Ġcan": 3767,
      "çľĭèµ·æĿ¥": 3768,
      "ç¢İ": 3769,
      "ud": 3770,
      "çº·": 3771,
      "ç¬¬äºĮä¸ª": 3772,
      "ä¹Ķ": 3773,
      "é¸Ń": 3774,
      "ä¹°äºĨä¸Ģ": 3775,
      "ard": 3776,
      "çļĦåĨħå®¹": 3777,
      "çļĦåŁİå¸Ĥ": 3778,
      "äºĨä¸Ģç§į": 3779,
      "éĺ¶": 3780,
      "Ġat": 3781,
      "åľĪ": 3782,
      "éĺ´": 3783,
      "ity": 3784,
      "åİ¨": 3785,
      "çĲ´": 3786,
      "é¼ĵåĬ±": 3787,
      "))": 3788,
      "æİĴæĶ¾": 3789,
      "ç§¯æŀģçļĦ": 3790,
      ":-": 3791,
      "å½¢çĬ¶": 3792,
      "æīĵå¼Ģ": 3793,
      "æ°¸è¿ľ": 3794,
      "åĲĪéĢĤçļĦ": 3795,
      "éģµ": 3796,
      "Ðµ": 3797,
      "æħ§": 3798,
      "å²¸": 3799,
      "ä¸»è§Ĵ": 3800,
      "éĽĦ": 3801,
      "å¯Ĩçłģ": 3802,
      "ĽåĽ´": 3803,
      "åı¯ä»¥å°Ĩ": 3804,
      "Ġlo": 3805,
      "ä¹Łå°±æĺ¯": 3806,
      "å®ļæľŁ": 3807,
      "ç²¾ç¥ŀ": 3808,
      "éļĲç§ģ": 3809,
      "çĤ¸": 3810,
      "æĹ¨åľ¨": 3811,
      "æĺĵäºİ": 3812,
      "å·²çŁ¥": 3813,
      "GPT": 3814,
      "è½¬åĮĸ": 3815,
      "ä»¥ç¡®ä¿Ŀ": 3816,
      "çļĦç²": 3817,
      "all": 3818,
      "è¢ĸ": 3819,
      "åŃĺåĤ¨": 3820,
      "åħħæ»¡äºĨ": 3821,
      "çļĦçĭĹ": 3822,
      "åĮºåŁŁ": 3823,
      "åįķä½į": 3824,
      "ç¨®": 3825,
      "æŁłæª¬": 3826,
      "ç®Ģçº¦": 3827,
      "çļĦç©º": 3828,
      "æī£": 3829,
      "éģİ": 3830,
      "ana": 3831,
      "èĺ": 3832,
      "åĴĮæĸĩåĮĸ": 3833,
      "åľ¨è¿Ļ": 3834,
      "æĢ»ä¹ĭ": 3835,
      "åİŁçĲĨ": 3836,
      "ĠCh": 3837,
      "çīĽèĤī": 3838,
      "æĺİæĺ¾": 3839,
      "ç»Łè®¡": 3840,
      "æĶ¯ç¬Ķ": 3841,
      "çķĻä¸ĭ": 3842,
      "æī¬": 3843,
      "åĲįä¸º": 3844,
      "ä¿Ŀè¯ģ": 3845,
      "åİŁæĿ¥": 3846,
      "æķ°åĢ¼": 3847,
      "æĦīæĤ¦": 3848,
      "çľĭçĶµå½±": 3849,
      "ç¨³å®ļ": 3850,
      "åºĶçĶ¨äºİ": 3851,
      "ä¸ĢåĢĭ": 3852,
      "æľĢå¥½çļĦ": 3853,
      "éĵ¶è¡Į": 3854,
      "çºłéĶĻ": 3855,
      "ions": 3856,
      "è´¡çĮ®": 3857,
      "çº¹": 3858,
      "ä¸Ģæ®µæĸĩæľ¬": 3859,
      "èı²": 3860,
      "æŁ¥æī¾": 3861,
      "éĢĤå½ĵçļĦ": 3862,
      "æľŁéĹ´": 3863,
      "èĻİ": 3864,
      "äººåı£": 3865,
      "oy": 3866,
      "åľĭ": 3867,
      "æľĢå¥½": 3868,
      "æĽ¼": 3869,
      "é¸£": 3870,
      "æĹ©é¤Ĳ": 3871,
      "ä¸Ģå¼ł": 3872,
      "ãĢĮ": 3873,
      "éĤ£ä¸ª": 3874,
      "æľªæĿ¥çļĦ": 3875,
      "åĪĩæĪĲ": 3876,
      "ä¸¦": 3877,
      "åĩºçĶŁ": 3878,
      "éĢĥ": 3879,
      "éħĴåºĹ": 3880,
      "åīª": 3881,
      "èĻļæĭŁ": 3882,
      "ç¥ŀç»ıç½ĳç»ľ": 3883,
      "è·ĥ": 3884,
      "æ©ĺ": 3885,
      "ace": 3886,
      "æĢķ": 3887,
      "åĬłæ³ķ": 3888,
      "å°¤åħ¶": 3889,
      "èµ¢": 3890,
      "çıĤ": 3891,
      "Ġ||": 3892,
      "åĿļæĮģ": 3893,
      "çļĦè®¾è®¡": 3894,
      "è¿Ĳè¡Į": 3895,
      "è°ĥåĳ³": 3896,
      "æİ¨åĬ¨": 3897,
      "æĢ»åħ±": 3898,
      "å®Ĺ": 3899,
      "å»ºè®®æĤ¨": 3900,
      "æııè¿°äºĨ": 3901,
      "Ġas": 3902,
      "æıĲä¾Ľä¸ĢäºĽ": 3903,
      "ãĢį": 3904,
      "å®ĥåı¯ä»¥": 3905,
      "ice": 3906,
      "ä¸Ĭè¿°": 3907,
      "çĳľä¼½": 3908,
      "å¼Ł": 3909,
      "æĺİäºĨ": 3910,
      "æĸĩç«łä¸Ń": 3911,
      "ast": 3912,
      "ä»¿ä½Ľ": 3913,
      "çĺ": 3914,
      "ç§Ĵ": 3915,
      "ĠãĢĬ": 3916,
      "è¿ħ": 3917,
      "ä¸ĬéĿ¢çļĦ": 3918,
      "éĻ¤äºĨ": 3919,
      "å¦Īå¦Ī": 3920,
      "ä½¿åħ¶æĽ´åĬł": 3921,
      "è¶ħå¸Ĥ": 3922,
      "è¡«": 3923,
      "ç»Ĩèĥŀ": 3924,
      "å½Ĵç±»ä¸º": 3925,
      "å¢Ļ": 3926,
      "ä¸ļåĬ¡": 3927,
      "åĲ«æľī": 3928,
      "ä»ĭç»įäºĨ": 3929,
      "21": 3930,
      "èĬĴ": 3931,
      "è¸ª": 3932,
      "çĨĬçĮ«": 3933,
      "æĪĲåĪĨ": 3934,
      "è´´": 3935,
      "çļĦæ¯ı": 3936,
      "æ²Ļæĭī": 3937,
      "ive": 3938,
      "çº¦ä¸º": 3939,
      "Ġby": 3940,
      "è½»è½»": 3941,
      "com": 3942,
      "ĠåĴĮ": 3943,
      "çĶŁæĪĲä¸Ģç¯ĩ": 3944,
      "åī§æĥħ": 3945,
      "éģĩåĪ°": 3946,
      "èī¯å¥½çļĦ": 3947,
      "æŁĶè½¯": 3948,
      "ä¼¯": 3949,
      "æ£ī": 3950,
      "ä¸¾è¡Į": 3951,
      "æĪ´": 3952,
      "æ»¡æĦı": 3953,
      "çĶļèĩ³": 3954,
      "ment": 3955,
      "Ġse": 3956,
      "æ¢ħ": 3957,
      "åĨ¬åŃ£": 3958,
      "ç¨İ": 3959,
      "çļĦåĢ¼": 3960,
      "èģªæĺİ": 3961,
      "å®¡": 3962,
      "ä¸Ģéĥ¨": 3963,
      "ÙĦ": 3964,
      "æľĢå¤§çļĦ": 3965,
      "ç¤ºä¾ĭ": 3966,
      "ood": 3967,
      "NA": 3968,
      "çī¹èī²": 3969,
      "Ã·": 3970,
      "çļĦæ·": 3971,
      "é¸¡èĤī": 3972,
      "åıĬæĹ¶": 3973,
      "ob": 3974,
      "åıįä¹īè¯į": 3975,
      "çĶŁæĪĲä¸Ģæ®µ": 3976,
      "æ¸ħæ´ģ": 3977,
      "éĸĭ": 3978,
      "èĭĹ": 3979,
      "è´¢åĬ¡": 3980,
      "urn": 3981,
      "çļĦçĥŃ": 3982,
      "æłĩçŃ¾": 3983,
      "è¥¿çıŃçīĻè¯Ń": 3984,
      "åħµ": 3985,
      "è¢«è®¤ä¸º": 3986,
      "è¦Ĩ": 3987,
      "åĨħå¿ĥ": 3988,
      "çļĦæĻº": 3989,
      "Ġåħĥ": 3990,
      "çĶĺ": 3991,
      "æİ¨åĩº": 3992,
      "å¹¶æ²¡æľī": 3993,
      "äº¤æĺĵ": 3994,
      "22": 3995,
      "35": 3996,
      "æĤ¬": 3997,
      "éĨī": 3998,
      "æİ¥çĿĢ": 3999,
      "æİĮæı¡": 4000,
      "äºĪ": 4001,
      "Ġmy": 4002,
      "æĪĳä»¬åı¯ä»¥çĶ¨": 4003,
      "ç£¨": 4004,
      "åĵ¦": 4005,
      "çģ°": 4006,
      "ple": 4007,
      "æĸ¤": 4008,
      "æĶ¶éĽĨ": 4009,
      "ust": 4010,
      "æĺ¯æĪĳ": 4011,
      "é«Ķ": 4012,
      "python": 4013,
      "ä½ĵéĩį": 4014,
      "nt": 4015,
      "éĸĵ": 4016,
      "èĢĢ": 4017,
      "è§ĦåĪĴ": 4018,
      "èİ·å¾ĹäºĨ": 4019,
      "åĪĨå¸ĥ": 4020,
      "æĢģåº¦": 4021,
      "è·¯ä¸Ĭ": 4022,
      "èıľåĵģ": 4023,
      "åĮ¹": 4024,
      "ish": 4025,
      "æĶ¹åĨĻ": 4026,
      "à¯": 4027,
      "äººç±»çļĦ": 4028,
      "è®²è¿°äºĨ": 4029,
      "çĦ¦èĻĳ": 4030,
      "èį¯çī©": 4031,
      "å±ı": 4032,
      "å¹´ä»½": 4033,
      "æ¸ħæĸ°": 4034,
      "è¯¢éĹ®": 4035,
      "çĭ®": 4036,
      "èĪĩ": 4037,
      "Ġï¼Į": 4038,
      "Ġ25": 4039,
      "ä¼łæĴŃ": 4040,
      "éĶĢåĶ®é¢Ŀ": 4041,
      "åıªèĥ½": 4042,
      "åºıåĪĹ": 4043,
      "è´¦": 4044,
      "çļĩ": 4045,
      "å½¢è±¡": 4046,
      "æŀĦå»º": 4047,
      "rom": 4048,
      "æł¹æį®ç»Ļå®ļçļĦæĸĩæľ¬": 4049,
      "This": 4050,
      "æĭĤ": 4051,
      "çļĦæ¼Ķ": 4052,
      "èº«é«ĺ": 4053,
      "åįľ": 4054,
      "çļĦæĥ³": 4055,
      "ä¸ºä»¥ä¸ĭ": 4056,
      "ä»Ĭå¹´": 4057,
      "list": 4058,
      "()": 4059,
      "ä¸¤ä¸ªåı¥åŃĲ": 4060,
      "ain": 4061,
      "ä¼¦æķ¦": 4062,
      "åĩıè½»": 4063,
      "å¯»æ±Ĥ": 4064,
      "çĥ¹": 4065,
      "Hello": 4066,
      "åıĤæķ°": 4067,
      "èĤ´": 4068,
      "ne": 4069,
      "1000": 4070,
      "éķ¿çļĦ": 4071,
      "èĢĹ": 4072,
      "ä¼Ł": 4073,
      "åħ³éĶ®åŃĹ": 4074,
      "çĶµå½±çļĦ": 4075,
      "çĪ¸": 4076,
      "æ¶µ": 4077,
      "çļĦæ´»åĬ¨": 4078,
      "åľ°ä¸Ĭ": 4079,
      "ä¼ĺè´¨": 4080,
      "çļĦéĢīæĭ©": 4081,
      "çļĦé¢ľèī²": 4082,
      "èĢį": 4083,
      "ä¸Ģçīĩ": 4084,
      "å°Ĭéĩį": 4085,
      "å¤ıæĹ¥": 4086,
      "æĭĽ": 4087,
      "é£Łè°±": 4088,
      "çĪ±å¥½": 4089,
      "éħª": 4090,
      "æ³¨éĩį": 4091,
      "æłĩå¿Ĺ": 4092,
      "ä¾§": 4093,
      "éľľ": 4094,
      "ä¸¤ç§į": 4095,
      "ame": 4096,
      "ä¸Ģåľº": 4097,
      "äººåľ¨": 4098,
      "rt": 4099,
      "åŁºåĽł": 4100,
      "ä¼ĳæģ¯": 4101,
      "éĢģç»Ļ": 4102,
      "çļĦäºĭæĥħ": 4103,
      "æĳ©": 4104,
      "åĵĪåĪ©": 4105,
      "åĵģå°Ŀ": 4106,
      "rand": 4107,
      "Ġlike": 4108,
      "è®°å¿Ĩ": 4109,
      "çĳŀ": 4110,
      "ç¦»å¼Ģ": 4111,
      "ä½¿åħ¶æĽ´": 4112,
      "ä¸Ģä»¶": 4113,
      "å¯Ĥ": 4114,
      "çļĦå·¥ä½ľ": 4115,
      "Ġhave": 4116,
      "éĿ¢æĸĻ": 4117,
      "æĽ¾ç»ı": 4118,
      "åĸľå¥½": 4119,
      "èĭ±æĸĩåı¥åŃĲ": 4120,
      "å¹½": 4121,
      "ä¹ĺä»¥": 4122,
      "çļĦéĩįè¦ģæĢ§": 4123,
      "ä½¿çĶ¨äºĨ": 4124,
      "èĤ¡ç¥¨": 4125,
      "æ´ĭèĳ±": 4126,
      "èħĲ": 4127,
      "ä¸Ģéģĵ": 4128,
      "ç¢Ĺ": 4129,
      "ä¹ı": 4130,
      "åĩ¡": 4131,
      "æŀļ": 4132,
      "å¿§": 4133,
      "åĨħéĥ¨": 4134,
      "é¥ª": 4135,
      "èİİ": 4136,
      "ä»Ļ": 4137,
      "åĸ»": 4138,
      "è®¿éĹ®": 4139,
      "æįķ": 4140,
      "å°ıæĺİçİ°åľ¨": 4141,
      "éļ¾ä»¥": 4142,
      "ä¸ºä½ł": 4143,
      "åĲĽ": 4144,
      "æıĲç¤º": 4145,
      "æĳĨ": 4146,
      "up": 4147,
      "åĪĻæĺ¯": 4148,
      "æ¬²": 4149,
      "70": 4150,
      "çĮª": 4151,
      "ĠY": 4152,
      "è·µ": 4153,
      "åĭĴ": 4154,
      "çļĦä¹¦": 4155,
      "å¹¶å°Ĩ": 4156,
      "å¯¼æ¼Ķ": 4157,
      "åĩłä¸ªèĭ¹æŀľ": 4158,
      "ç«ŀäºī": 4159,
      "åĪĢ": 4160,
      "åıĹæ¬¢è¿İçļĦ": 4161,
      "æł¹éĵħç¬Ķ": 4162,
      "æĦıå¤§åĪ©éĿ¢": 4163,
      "æ·ĩ": 4164,
      "èµ°äºĨ": 4165,
      "ä¹Ļ": 4166,
      "èİ±": 4167,
      "çī©çĲĨåŃ¦": 4168,
      "èĽĭçĻ½è´¨": 4169,
      "åĨįæ¬¡": 4170,
      "ãĢĭï¼Į": 4171,
      "äººå·¥æĻºèĥ½åľ¨": 4172,
      "ç»ĻæĪĳæİ¨èįĲ": 4173,
      "çłĶ": 4174,
      "çļĦä¸»": 4175,
      "çŃīå¾ħ": 4176,
      "åº¦è¿ĩ": 4177,
      "æľªçŁ¥": 4178,
      "æĤ£èĢħ": 4179,
      "å¯¹æĸ¹": 4180,
      "åĬŀåħ¬": 4181,
      "Ġwas": 4182,
      "ç»Ļå®ļä¸Ģç»Ħ": 4183,
      "èĿ¶": 4184,
      "te": 4185,
      "æ·ĩæ·ĭ": 4186,
      "éĢĬ": 4187,
      "èıĩ": 4188,
      "å°ıçĲĥ": 4189,
      "æĴĴ": 4190,
      "å®¤åĨħ": 4191,
      "çº½çº¦å¸Ĥ": 4192,
      "çĻ½èī²": 4193,
      "èĴĤ": 4194,
      "æĬĢæľ¯çļĦ": 4195,
      "åĨ°æ·ĩæ·ĭ": 4196,
      "è¯¾ç¨ĭ": 4197,
      "ä¸ŃæĢ§": 4198,
      "çģŃ": 4199,
      "ä¹Łå¾Ī": 4200,
      "äºĨè®¸å¤ļ": 4201,
      "å°±åı¯ä»¥": 4202,
      "ä¼¼ä¹İ": 4203,
      "æ¶Ĥ": 4204,
      "Ð¸": 4205,
      "å¼±": 4206,
      "hone": 4207,
      "Â°": 4208,
      "è¼": 4209,
      "ä¸Ńæĸĩç¿»è¯ĳ": 4210,
      "åĵ²åŃ¦": 4211,
      "æĪĲç»©": 4212,
      "çıŃçº§": 4213,
      "æĹłéĻĲ": 4214,
      "æĹ¶éĹ´åĴĮ": 4215,
      "å¸¸å¸¸": 4216,
      "å½¼æŃ¤": 4217,
      "è§£éĩĬä¸Ģä¸ĭ": 4218,
      "uc": 4219,
      "very": 4220,
      "é¢Ĩå¯¼": 4221,
      "çİ©èĢį": 4222,
      "36": 4223,
      "é¢Ĺç³ĸ": 4224,
      "ç¼ĵè§£": 4225,
      "è°ĵè¯Ń": 4226,
      "åĴ¨": 4227,
      "é²ģ": 4228,
      "åĴª": 4229,
      "ç»Ĵ": 4230,
      "é£ŁçĶ¨": 4231,
      "ork": 4232,
      "æĮĩå®ļ": 4233,
      "æł¹æį®è¾ĵåħ¥": 4234,
      "æ¬§æ´²": 4235,
      "åĨĻä¸Ģç¯ĩåħ³äºİ": 4236,
      "75": 4237,
      "ä¸ºä¸Ģä¸ª": 4238,
      "æıĲéĨĴ": 4239,
      "çĶŁæ´»ä¸Ń": 4240,
      "å·®å¼Ĥ": 4241,
      "ib": 4242,
      "ä¹±": 4243,
      "é²¸": 4244,
      "çĽŁ": 4245,
      "çĿ¡çľł": 4246,
      "åĭĩæķ¢": 4247,
      "å¦¹": 4248,
      "are": 4249,
      "åį§": 4250,
      "ç¦ģ": 4251,
      "Ġsh": 4252,
      "Ŀåįľ": 4253,
      "åĪł": 4254,
      "å¤§çº¦": 4255,
      "ä¿Ŀåģ¥": 4256,
      "é¤Ĳé¦Ĩ": 4257,
      "è²Į": 4258,
      "å®ŀè·µ": 4259,
      "èĦī": 4260,
      "å¹´æĿ¥": 4261,
      "çļĦæĮĩ": 4262,
      "æĢª": 4263,
      "å°±åĥı": 4264,
      "åħ´å¥ĭ": 4265,
      "ub": 4266,
      "Ġtr": 4267,
      "åĽĽä¸ª": 4268,
      "åıĺå¾ĹæĽ´åĬł": 4269,
      "æĢ»æķ°": 4270,
      "oc": 4271,
      "åĵģç§į": 4272,
      "èĮ¨": 4273,
      "ç¤¾åĮº": 4274,
      "é¬": 4275,
      "èĥģ": 4276,
      "act": 4277,
      "çī©ç§į": 4278,
      "è¿Ľè¡ĮäºĨ": 4279,
      "åŃĲåĴĮ": 4280,
      "ear": 4281,
      "åģ¥åº·çļĦ": 4282,
      "ä¸ºæĤ¨æıĲä¾Ľ": 4283,
      "å¹¶ç»Ļåĩº": 4284,
      "åĴ¨è¯¢": 4285,
      "é³": 4286,
      "å¯¹è±¡": 4287,
      "åŃ¦ä¹łåĴĮ": 4288,
      "åı¯éĿł": 4289,
      "çĸ«æĥħ": 4290,
      "ä¹ĭå¤Ħ": 4291,
      "å°ıçļĦ": 4292,
      "èĬ¬": 4293,
      "æ¤ħ": 4294,
      "èģĬå¤©": 4295,
      "ç»´æĬ¤": 4296,
      "çļĦç½ĳ": 4297,
      "æķ´ä½ĵ": 4298,
      "åıĤèĢĥ": 4299,
      "çĶŁç´ł": 4300,
      "å°ıæĺİè¿ĺåī©ä¸ĭ": 4301,
      "ark": 4302,
      "å°Ĩåľ¨": 4303,
      "åº¦åģĩ": 4304,
      "ap": 4305,
      "çļĦçĻ": 4306,
      "ä¸Ģé¡¹": 4307,
      "å¤ĸå¥Ĺ": 4308,
      "åĳ¨éķ¿": 4309,
      "åį«çĶŁ": 4310,
      "çļĦè¯Ńè¨Ģ": 4311,
      "è¡ĵ": 4312,
      "éĹ®é¢ĺçļĦ": 4313,
      "éĥ¨éĹ¨": 4314,
      "èİī": 4315,
      "åĲĦä¸ª": 4316,
      "ä»°": 4317,
      "æĩī": 4318,
      "åŃĹæ¯įé¡ºåºı": 4319,
      "èĮĥåĽ´åĨħ": 4320,
      "å¢¨": 4321,
      "ack": 4322,
      "ä¼ĺåĬ¿": 4323,
      "çļĦåĲ«ä¹ī": 4324,
      "è§Ĵåº¦": 4325,
      "æĿ¥æºĲ": 4326,
      "åľ¨äºİ": 4327,
      "çľĭçľĭ": 4328,
      "çİ©å®¶": 4329,
      "æŃ»äº¡": 4330,
      "ä¸ĭéĽ¨": 4331,
      "æĪĲå°±": 4332,
      "æĮĤ": 4333,
      "ç¶ĵ": 4334,
      "åıĳæĮ¥": 4335,
      "åĽŀçŃĶä¸ĬéĿ¢çļĦ": 4336,
      "æ°ıåº¦": 4337,
      "åĽŀçŃĶä¸ĬéĿ¢çļĦéĹ®é¢ĺ": 4338,
      "çļĦçİ¯å¢ĥ": 4339,
      "çĭĤ": 4340,
      "ä¼łè¾¾": 4341,
      "æĻĴ": 4342,
      "èį¡": 4343,
      "å¨ģèĥģ": 4344,
      "çļĦå°ıè¯´": 4345,
      "ä¸Ģåħ±æľīå¤ļå°ĳ": 4346,
      "çľŁå®ŀ": 4347,
      "å®īè£ħ": 4348,
      "Ġint": 4349,
      "è·¨": 4350,
      "ç´¯": 4351,
      "äºĴåĬ¨": 4352,
      "è§£çŃĶ": 4353,
      "éĹľ": 4354,
      "èĤł": 4355,
      "åħ¬åĽŃéĩĮ": 4356,
      "åģ¶æķ°": 4357,
      "æĸĩä»¶": 4358,
      "ï¼īãĢģ": 4359,
      "æ£Ģæµĭ": 4360,
      "ä¸°å¯ĮçļĦ": 4361,
      "æł¹æį®é¢ĺçĽ®": 4362,
      "æķıæį·": 4363,
      "Ġä½ł": 4364,
      "è®¡ç®Ĺåĩº": 4365,
      "%ãĢĤ": 4366,
      "åĩºå¤Ħ": 4367,
      "äºĨä¸ĢäºĽ": 4368,
      "åħħåĪĨ": 4369,
      "åľ°åĿĢ": 4370,
      "è®¡ç®Ĺæľºç§ĳåŃ¦": 4371,
      "low": 4372,
      "cm": 4373,
      "æľīçļĦ": 4374,
      "æĪĳä¸į": 4375,
      "å¯¹ä»¥ä¸ĭ": 4376,
      "Ġam": 4377,
      "èĦı": 4378,
      "çģ¾å®³": 4379,
      "è´¹çĶ¨": 4380,
      "ide": 4381,
      "èĥ¸": 4382,
      "èī¯å¥½": 4383,
      "ç§Ł": 4384,
      "æ¶Īæŀģ": 4385,
      "èĬĿå£«": 4386,
      "çĶµæ±ł": 4387,
      "é»ĳæļĹ": 4388,
      "çļĦçŁ¥": 4389,
      "áĢ": 4390,
      "ÃĹ": 4391,
      "åı¯ä»¥åĪĨåĪ°": 4392,
      "éŁµ": 4393,
      "åĽ¾ä¹¦": 4394,
      "é¢Ħéĺ²": 4395,
      "çļĦæ£ķèī²": 4396,
      "è§Ħå¾ĭ": 4397,
      "æĸ¹ç¨ĭå¼ı": 4398,
      "æĭĶ": 4399,
      "çĩķ": 4400,
      "æĹ¶åĪ»": 4401,
      "å¹¶å°Ĩåħ¶": 4402,
      "å§¿": 4403,
      "éģŃ": 4404,
      "æ²¿": 4405,
      "åį°åº¦": 4406,
      "çļĦåİŁåĽł": 4407,
      "è±ª": 4408,
      "Ġ18": 4409,
      "å¥Ķ": 4410,
      "å¡ĳæĸĻ": 4411,
      "é¸Łç±»": 4412,
      "ä»ĸäºº": 4413,
      "å¾®é£İ": 4414,
      "å°Ĩç»Ļå®ļçļĦ": 4415,
      "åłĨ": 4416,
      "Ġæĺ¯": 4417,
      "å¼Ĺ": 4418,
      "åĬĽåŃ¦": 4419,
      "äº«çĶ¨": 4420,
      "èıĮ": 4421,
      "è£ģ": 4422,
      "çĽ¸çŃī": 4423,
      "éŃħ": 4424,
      "çļĦæĦıä¹ī": 4425,
      "èĴĻ": 4426,
      "çļĦç²¾": 4427,
      "æĸĩåĮĸåĴĮ": 4428,
      "ç·": 4429,
      "çļĦå¤©": 4430,
      "çĸ²": 4431,
      ")```": 4432,
      "turn": 4433,
      "çĮİ": 4434,
      "day": 4435,
      "å·¨å¤§çļĦ": 4436,
      "Ġ#": 4437,
      "æĪĳå°Ĩ": 4438,
      "Ġ100": 4439,
      "æ¢¨": 4440,
      "è¿Ļéģĵ": 4441,
      "æıĴ": 4442,
      "str": 4443,
      "çļĦæ¨": 4444,
      "å·¥ä¸ļ": 4445,
      "è¿Ļå®¶é¤Ĳåİħ": 4446,
      "è®¤è¯Ĩ": 4447,
      "ï¼ļ[": 4448,
      "Ġ13": 4449,
      "æŁ¥çľĭ": 4450,
      "å®Ŀå®Ŀ": 4451,
      "ä½ľå®¶": 4452,
      "æĪĳåĢĳ": 4453,
      "éļıæĹ¶": 4454,
      "Ð½": 4455,
      "éªĮè¯ģ": 4456,
      "å®£ä¼ł": 4457,
      "åıĤè§Ĥ": 4458,
      "è¢«ç§°ä¸º": 4459,
      "åį±éĻ©": 4460,
      "Ġ16": 4461,
      "æľīæķĪåľ°": 4462,
      "æĴ°": 4463,
      "æ²ŁéĢļ": 4464,
      "åĲĪå¹¶": 4465,
      "å¦Ĥä½ķåĪ¶ä½ľ": 4466,
      "åľĨçļĦ": 4467,
      "çļĦæ¢": 4468,
      "è®¾æĸ½": 4469,
      "è½¦è¾Ĩ": 4470,
      "èıľèĤ´": 4471,
      "æģĭ": 4472,
      "ite": 4473,
      "ä¸ĢåĪĩ": 4474,
      "æŃ£å¼ı": 4475,
      "éĺ»": 4476,
      "æł¹æį®æıĲä¾Ľ": 4477,
      "å°ĺ": 4478,
      "è¯Ńæ°Ķ": 4479,
      "åĽŀå¿Ĩ": 4480,
      "çĳ°": 4481,
      "æħ¢æħ¢": 4482,
      "æ³¢çī¹": 4483,
      "çħİ": 4484,
      "çļĦçĮ": 4485,
      "ĠØ": 4486,
      "è¿Ļåıª": 4487,
      "åĮºåĿĹ": 4488,
      "åı¤èĢģ": 4489,
      "æľŁå¾ħ": 4490,
      "rans": 4491,
      "åºŁ": 4492,
      "èĤĸ": 4493,
      "æµ·è¾¹": 4494,
      "äººå·¥æĻºèĥ½çļĦ": 4495,
      "æĪĲè¯Ńåĩºå¤Ħ": 4496,
      "æłĩçĤ¹": 4497,
      "ach": 4498,
      "åħĥçļĦ": 4499,
      "çļĦçĪ±æĥħ": 4500,
      "å°ĩ": 4501,
      "ä¾µ": 4502,
      "å®£å¸ĥ": 4503,
      "æĪĲåĳĺ": 4504,
      "åĸľæ¬¢åĲĥ": 4505,
      "æ¼Ĥäº®": 4506,
      "çļĦåĲįåŃĹ": 4507,
      "æĥľ": 4508,
      "çļĦæ£ķèī²çĭĲçĭ¸": 4509,
      "ÑĤ": 4510,
      "å¤®": 4511,
      "è¡¬": 4512,
      "å®¶åħ·": 4513,
      "æĹģ": 4514,
      "å¼ķåĬĽ": 4515,
      "æııè¿°ä¸Ģä¸ĭ": 4516,
      "ä¹ĭå¤ĸ": 4517,
      "å¿ĥä¸Ń": 4518,
      "çĸĳéĹ®": 4519,
      "å°½åı¯èĥ½": 4520,
      "ff": 4521,
      "åľ¨ç»Ļå®ļçļĦ": 4522,
      "ä¸ºç»Ļå®ļçļĦ": 4523,
      "åı¯ä»¥è®©": 4524,
      "åıĳåĩº": 4525,
      "åİŁæĸĩ": 4526,
      "åħĭçļĦ": 4527,
      "å¿ĥçģµ": 4528,
      "çº¢èī²çļĦ": 4529,
      "pple": 4530,
      "çļĦç¾İå¥½": 4531,
      "è«": 4532,
      "ä¸ĭéĻį": 4533,
      "çļĦçĹ": 4534,
      "ç»¼åĲĪ": 4535,
      "ma": 4536,
      "ä¸¹": 4537,
      "éĩĳé¢Ŀ": 4538,
      "åĪºæ¿Ģ": 4539,
      "ä¼Ļ": 4540,
      "ä½łä»¬": 4541,
      "ãĢĭï¼Ī": 4542,
      "åĪĺ": 4543,
      "æĲº": 4544,
      "åĪ·": 4545,
      "çļĦæ¶": 4546,
      "èĢĮæĺ¯": 4547,
      "å¼Ģå¿ĥ": 4548,
      "éķ¿æľŁ": 4549,
      "è¯·å¸®æĪĳ": 4550,
      "èĤ¯å®ļ": 4551,
      "ä¹Łä¸į": 4552,
      "2019": 4553,
      "è§Ħæ¨¡": 4554,
      "æī®": 4555,
      "åĨ³äºİ": 4556,
      "å°¼åħĭ": 4557,
      "Â²": 4558,
      "å¸½": 4559,
      "å°Ĩä¸ĭéĿ¢": 4560,
      "åıĸåĨ³äºİ": 4561,
      "å¤§è±¡": 4562,
      "è¯¥æĸĩæľ¬": 4563,
      "çĪ±çļĦ": 4564,
      "ç±»åŀĭçļĦ": 4565,
      "çļĦé¦ĸ": 4566,
      "og": 4567,
      "å®ģéĿĻ": 4568,
      "è¿Ŀ": 4569,
      "çĻĮ": 4570,
      "åķĨåºĹ": 4571,
      "æ»ļ": 4572,
      "çļĦæ¸¸æĪı": 4573,
      "æİ¨å¹¿": 4574,
      "åł´": 4575,
      "apple": 4576,
      "no": 4577,
      "ould": 4578,
      "çļĦæģ": 4579,
      "æī°": 4580,
      "æķ°æį®çļĦ": 4581,
      "åį³ä½¿": 4582,
      "æĭľ": 4583,
      "æĻºæħ§": 4584,
      "æ¸¸å®¢": 4585,
      "çī¹å®ļçļĦ": 4586,
      "æ©ĺåŃĲ": 4587,
      "å¾Į": 4588,
      "è¯Ŀé¢ĺ": 4589,
      "iP": 4590,
      "å±±å³°": 4591,
      "å¿ł": 4592,
      "å§Ķ": 4593,
      "éĤ£ä¹Īä»ĸ": 4594,
      "å»ºè®¾": 4595,
      "åı¯æĮģç»Ńåıĳå±ķ": 4596,
      "ning": 4597,
      "Ġâ": 4598,
      "çļĦæĮĳæĪĺ": 4599,
      "è°Ĭ": 4600,
      "æĿĲè´¨": 4601,
      "æ¦Ħ": 4602,
      "çĹĩçĬ¶": 4603,
      "imp": 4604,
      "çļ®èĤ¤": 4605,
      "é¦¨": 4606,
      "çļĦçľŁ": 4607,
      "ÑĢ": 4608,
      "æŃ£å¸¸": 4609,
      "ä¸»äººåħ¬": 4610,
      "èĸ¯": 4611,
      "Ħæ¦Ħ": 4612,
      "æĶ¹ä¸º": 4613,
      "ies": 4614,
      "èĢĥè¯ķ": 4615,
      "æİ¢è®¨äºĨ": 4616,
      "çļĦä½įç½®": 4617,
      "èĥ½åĪĨåĪ°": 4618,
      "çľĭåĪ°äºĨ": 4619,
      "å·¨å¤§": 4620,
      "è³ĩ": 4621,
      "æĸľ": 4622,
      "çĶ·åŃĲ": 4623,
      "è¿ĻæĦıåĳ³çĿĢ": 4624,
      "æĬĵ": 4625,
      "åį°è±¡": 4626,
      "ä¸Ģåı¥": 4627,
      "ä»£åħ¥": 4628,
      "èº«ä»½": 4629,
      "æ¯ıæ¬¡": 4630,
      "Ġno": 4631,
      "ç¤¼çī©": 4632,
      "èµ¢å¾Ĺ": 4633,
      "æķ¸": 4634,
      "èĥ¡æ¤Ĵ": 4635,
      "éĻ·": 4636,
      "æĮĩçļĦæĺ¯": 4637,
      "æ¥ļ": 4638,
      "éĩĮéĿ¢": 4639,
      "ich": 4640,
      "ber": 4641,
      "æ¯Ķä¾ĭ": 4642,
      "å°±ä¼ļ": 4643,
      "æ¥Ń": 4644,
      "çºłæŃ£": 4645,
      "ava": 4646,
      "æ¶Īè´¹èĢħ": 4647,
      "çº¤": 4648,
      "èĤº": 4649,
      "åľŁè±Ĩ": 4650,
      "ä¹ĭéĹ´çļĦåħ³ç³»": 4651,
      "32": 4652,
      "Ġè®¡ç®Ĺ": 4653,
      "çļĦè¡Įä¸º": 4654,
      "çļĦé£İæł¼": 4655,
      "ä»Ĭå¤©å¤©æ°Ķ": 4656,
      "åĪłéĻ¤": 4657,
      "çļĦä¸Ģç§į": 4658,
      "é¹ħ": 4659,
      "è®ĵ": 4660,
      "è¡Įé©¶": 4661,
      "ä¼ĺçĤ¹": 4662,
      "ä¸ŃéĢīæĭ©": 4663,
      "åı¯ä»¥æł¹æį®": 4664,
      "èĩªåĬ¨åĮĸ": 4665,
      "ph": 4666,
      "çļĦç«": 4667,
      "çĥ¹é¥ª": 4668,
      "çļĦéķ¿åº¦": 4669,
      "AIè¯Ńè¨Ģæ¨¡åŀĭ": 4670,
      "çļĦåŁºæľ¬": 4671,
      "ä¸ľäº¬": 4672,
      "è·³è¿ĩ": 4673,
      "æĪĸåħ¶ä»ĸ": 4674,
      "ong": 4675,
      "èĭ±æĸĩæĸĩæľ¬": 4676,
      "å²©": 4677,
      "Ġgo": 4678,
      "ï¼ī-": 4679,
      "æ¶īåıĬåĪ°": 4680,
      "ä¹Į": 4681,
      "èī³": 4682,
      "éĺ²æŃ¢": 4683,
      "çļĦæ©": 4684,
      "äº§åĵģçļĦ": 4685,
      "çļĦçľ¼": 4686,
      "æŀĦæĪĲ": 4687,
      "ä»ĸåĢĳ": 4688,
      "æĥ³è±¡": 4689,
      "èĬ±äºĨ": 4690,
      "çĶ¨äºĨ": 4691,
      "åĭĩæ°Ķ": 4692,
      "æ½®æµģ": 4693,
      "çļĦæ¦Ĥå¿µ": 4694,
      "æ¯ķ": 4695,
      "éĿŀå¸¸æĦŁè°¢": 4696,
      "æķ°åŃĹçļĦ": 4697,
      "çļĦåĬ¨çī©": 4698,
      "èĬĤå¥ı": 4699,
      "çļĦä¸ĸçķĮ": 4700,
      "åĪĹä¸¾": 4701,
      "å¤§åľ°": 4702,
      "199": 4703,
      "è¿Ļé¡¹": 4704,
      "ç®ĢçŁŃçļĦ": 4705,
      "è¿ħéĢŁ": 4706,
      "è½¬åĮĸä¸º": 4707,
      "æİĪ": 4708,
      "ç¨į": 4709,
      "**": 4710,
      "èº«å¿ĥ": 4711,
      "èĺĳ": 4712,
      "ä»ª": 4713,
      "çŃīå¼ı": 4714,
      "ç¡®è®¤": 4715,
      "é¦Ļæ¸¯": 4716,
      "çĶŁæĪĲä¸Ģé¦ĸ": 4717,
      "è§Ĥçľĭ": 4718,
      "é¡¾å®¢": 4719,
      "èĺĳèıĩ": 4720,
      "çļĦæĶ¯": 4721,
      "è§Ħå®ļ": 4722,
      "åĨ¥": 4723,
      "è¯·çĶ¨": 4724,
      "é¦Ī": 4725,
      "é£ŀæľº": 4726,
      "èħ°": 4727,
      "éĻª": 4728,
      "æĪĳä»¬åı¯ä»¥ä½¿çĶ¨": 4729,
      "æ±Ĥè§£": 4730,
      "æĽ´æĸ°": 4731,
      "anana": 4732,
      "å°ıæĺİçļĦ": 4733,
      "æĪĳä»¬åºĶè¯¥": 4734,
      "å·¥èīº": 4735,
      "èħ»": 4736,
      "åªļ": 4737,
      "åŃĶ": 4738,
      "æĸ°åŀĭ": 4739,
      "è·¯çº¿": 4740,
      "ç»´çĶŁç´ł": 4741,
      "ç«¹": 4742,
      "æ°´ä¸Ń": 4743,
      "à¹": 4744,
      "çļĦèĥ½åĬĽ": 4745,
      "èĤª": 4746,
      "èĦĤèĤª": 4747,
      "å¤ļçļĦ": 4748,
      "ä¼ĺæĥł": 4749,
      "å¹³éĿ¢": 4750,
      "éĩįçĤ¹": 4751,
      "æĪĲç«ĭ": 4752,
      "åı¯ä»¥æĺ¯": 4753,
      "ä»ĸæĬĬ": 4754,
      "æĺ¯æľĢ": 4755,
      "å¹´ä»£": 4756,
      "æ¡Ĩ": 4757,
      "å¾·åĽ½": 4758,
      "å¤§åŀĭ": 4759,
      "å£ģ": 4760,
      "è®¤çľŁ": 4761,
      "åŃ¦ä¼ļ": 4762,
      "æĺ¯è°ģ": 4763,
      "èĩªä¿¡": 4764,
      "æł¹æį®æīĢ": 4765,
      "åĽłä¸ºå®ĥä»¬": 4766,
      "æľīæ²¡æľī": 4767,
      "å½±çīĩ": 4768,
      "æııç»ĺ": 4769,
      "æİ¨æĸŃ": 4770,
      "ĠThe": 4771,
      "æĸĩæ¡£": 4772,
      "ase": 4773,
      "å¥¶éħª": 4774,
      "çļĦæĥħåĨµä¸ĭ": 4775,
      "æĳĺ": 4776,
      "çļĦæŁ": 4777,
      "å®ŀæĸ½": 4778,
      "éħįæĸĻ": 4779,
      "æµ´": 4780,
      "ass": 4781,
      "çİ«": 4782,
      "éĵº": 4783,
      "èĥ¡èĲ": 4784,
      "èĥ¡èĲĿåįľ": 4785,
      "æ³Ĭ": 4786,
      "æĮĳ": 4787,
      "éĥ½åľ¨": 4788,
      "ä»ĭç»įä¸Ģä¸ĭ": 4789,
      "æĺİçĻ½": 4790,
      "ake": 4791,
      "åıĳæĺİ": 4792,
      "åĨľä¸ļ": 4793,
      "æľīè®¸å¤ļ": 4794,
      "çŁ¿": 4795,
      "çļĦæ³ķ": 4796,
      "æĶ»åĩ»": 4797,
      "åĪĨæŀĲåĴĮ": 4798,
      "å±ħæ°ĳ": 4799,
      "åħ·å¤ĩ": 4800,
      "æķ£æĸĩ": 4801,
      "ãĢĤ'": 4802,
      "åº¦çļĦ": 4803,
      "åŁİå¸ĤçļĦ": 4804,
      "èĿ´": 4805,
      "èĦĨ": 4806,
      "33": 4807,
      "çļĦçĬ": 4808,
      "ç¿ħ": 4809,
      "æ©Ħæ¦Ħ": 4810,
      "åĮºåĿĹéĵ¾": 4811,
      "æŀģç«¯": 4812,
      "ä¸ĭä¸Ģä¸ª": 4813,
      "çļĦç¿": 4814,
      "èĢģé¼ł": 4815,
      "èĿ´èĿ¶": 4816,
      "27": 4817,
      "...": 4818,
      "æµ¸": 4819,
      "çŁ¥åĲį": 4820,
      "çĭ®åŃĲ": 4821,
      "Ġ11": 4822,
      "æĺ¯ä¸ĢåĲį": 4823,
      "çĬ¹": 4824,
      "ä¸įè¶ħè¿ĩ": 4825,
      "äºİæĺ¯": 4826,
      "æłĩè®°": 4827,
      "ç¾½": 4828,
      "GPTæ¨¡åŀĭ": 4829,
      "çļĦèĬ±": 4830,
      "æĪĳæ²¡æľī": 4831,
      "å¦ĩ": 4832,
      "é¡Į": 4833,
      "çĶŁæĪĲä¸Ģä»½": 4834,
      "éĩĳå±ŀ": 4835,
      "å®¾è¯Ń": 4836,
      "pl": 4837,
      "çĥ¤ç®±": 4838,
      "åĩłä¸ªç³ĸæŀľ": 4839,
      "æ©Ł": 4840,
      "æ¯ĶèµĽä¸Ń": 4841,
      "åĪ©æ¶¦": 4842,
      "'t": 4843,
      "å°ıæĿİ": 4844,
      "çļĦç¾İä¸½": 4845,
      "æľīçĤ¹": 4846,
      "æłĳåı¶": 4847,
      "able": 4848,
      "å¼¦": 4849,
      "çļĦæ°´æŀľ": 4850,
      "48": 4851,
      "å¤¹": 4852,
      "æ»¤": 4853,
      "åı¯ä»¥éĢīæĭ©": 4854,
      "çļĦç³ĸæŀľæķ°": 4855,
      "äºĨä»Ģä¹Ī": 4856,
      "çİ»": 4857,
      "èµĭ": 4858,
      "å¤ĸè§Ĥ": 4859,
      "ä¸īç§į": 4860,
      "åįĬå¾Ħ": 4861,
      "å®¤æ°Ķä½ĵ": 4862,
      "æłĩçĤ¹ç¬¦åı·": 4863,
      "ä¿Ĺ": 4864,
      "æľĪä»½": 4865,
      "ä»ģ": 4866,
      "ç»³": 4867,
      "æĵİ": 4868,
      "çİ«çĳ°": 4869,
      "åıĭè°Ĭ": 4870,
      "åĽ¾æ¡Ī": 4871,
      "å¸Ń": 4872,
      "çļĦæŃĮæĽ²": 4873,
      "å¦Ĥä½ķåľ¨": 4874,
      "çĥĤ": 4875,
      "çļĦç¥ŀ": 4876,
      "Ġ19": 4877,
      "å¼ºè°ĥäºĨ": 4878,
      "ä½įæķ°": 4879,
      "26": 4880,
      "ä¿®æŃ£": 4881,
      "æııè¿°ä¸Ģä¸ª": 4882,
      "çļĦçŁ¥è¯Ĩ": 4883,
      "èº«ä½ĵåģ¥åº·": 4884,
      "æĢ§åĪ«": 4885,
      "Ã¡": 4886,
      "æĤī": 4887,
      "å®ŀæĹ¶": 4888,
      "æīĵåį°": 4889,
      "èĥľåĪ©": 4890,
      "ĠãĢĤ": 4891,
      "åĬ©æīĭ": 4892,
      "çĶ·å£«": 4893,
      "è»": 4894,
      "å±ķå¼Ģ": 4895,
      "æĢİæł·": 4896,
      "åľ¨è¿ĻéĩĮ": 4897,
      "æĿ¥å®ŀçİ°": 4898,
      "å°Ĩä»¥ä¸ĭæĸĩæľ¬": 4899,
      "å¤§å¤ļ": 4900,
      "ðŁ": 4901,
      "èĢĮè¨Ģ": 4902,
      "çĶ¨åĵģ": 4903,
      "å¿½": 4904,
      "æ¢¦æĥ³": 4905,
      "èĤĮèĤī": 4906,
      "çļĦæĹ¥": 4907,
      "åĩĿ": 4908,
      "æ´Ĵ": 4909,
      "å½ĵä½ł": 4910,
      "é½Ĳ": 4911,
      "ä¸¤äºº": 4912,
      "è¢«è®¤ä¸ºæĺ¯": 4913,
      "çį": 4914,
      "æĢĸ": 4915,
      "åĩºåİ»": 4916,
      "çļĦæ¢¦": 4917,
      "çļĦé£İéĻ©": 4918,
      "æĪĳè®¤ä¸º": 4919,
      "åĮ»çĸĹä¿Ŀåģ¥": 4920,
      "çļĦæĥ³æ³ķ": 4921,
      "ä¼¸": 4922,
      "æĮĩå¯¼": 4923,
      "åĲ¬èµ·æĿ¥": 4924,
      "è¯ŃéŁ³è¯ĨåĪ«": 4925,
      "çļĦæĽ": 4926,
      "ç¿»è¯ĳä¸º": 4927,
      "300": 4928,
      "ä»Ĭå¤©æĺ¯": 4929,
      "è¯¸": 4930,
      "åºĦ": 4931,
      "éĺĶ": 4932,
      "çīĪæľ¬": 4933,
      "31": 4934,
      "æĸĩæľ¬ä¸ŃæıĲåıĸ": 4935,
      "æ³°åĿ¦": 4936,
      "29": 4937,
      "çļĦçī¹çĤ¹": 4938,
      "éĶħä¸Ń": 4939,
      "ä¿ĿçķĻ": 4940,
      "ä¼łéĢĴ": 4941,
      "çĴĥ": 4942,
      "ç´§å¼ł": 4943,
      "èĩªåĬ¨é©¾é©¶": 4944,
      "è¹Ī": 4945,
      "è½¨": 4946,
      "Ġest": 4947,
      ".âĢĿ": 4948,
      "Ġ---": 4949,
      "éĻ¶": 4950,
      "ç¥ŀç§ĺçļĦ": 4951,
      "çĿ£": 4952,
      "åı«åģļ": 4953,
      "æ¯«åįĩ": 4954,
      "å¼ķæĵİ": 4955,
      "èµĸ": 4956,
      "æĴŀ": 4957,
      "ç¼ĺ": 4958,
      "ä½ľä¸ºä¸Ģä¸ª": 4959,
      "çļĦè¿ĩç¨ĭ": 4960,
      "ä¸İåħ¶ä»ĸ": 4961,
      "å®Įç¾İ": 4962,
      "è¯´è¯Ŀ": 4963,
      "æ»´": 4964,
      "åĨłåĨĽ": 4965,
      "Ñģ": 4966,
      "çļĦå®īåħ¨": 4967,
      "æĻ®éĢļ": 4968,
      "è¦ĨçĽĸ": 4969,
      "çļĦæķ°åŃĹ": 4970,
      "çļĦç¾İé£Ł": 4971,
      "ç©Ĩ": 4972,
      "åĵªç§į": 4973,
      "çļĦä¸Ģéĥ¨åĪĨ": 4974,
      "ä¸ĬéĿ¢": 4975,
      "ath": 4976,
      "å§ľ": 4977,
      "èĬĤæĹ¥": 4978,
      "æŁ¿": 4979,
      "çīĽä»Ķ": 4980,
      "å°¼åħĭåı·": 4981,
      "Ġman": 4982,
      "éĩĬæĶ¾": 4983,
      "åľ°çĲĥçļĦ": 4984,
      "æķıæį·çļĦæ£ķèī²çĭĲçĭ¸": 4985,
      "çļĦåħ³éĶ®": 4986,
      "æķ°éĩıä¸º": 4987,
      "Ġab": 4988,
      "æł¹æį®æłĩé¢ĺ": 4989,
      "è¾ħ": 4990,
      "å¯¹åºĶ": 4991,
      "æĹĭå¾ĭ": 4992,
      "æĻ´æľĹ": 4993,
      "å½ĵæĹ¶": 4994,
      "åĮ»éĻ¢": 4995,
      "å¾Ĵ": 4996,
      "å¤§åĨĻ": 4997,
      "åİŁåŃĲ": 4998,
      "ĠĠĠ": 4999,
      "çļĦç¼ĸ": 5000,
      "è¯ģæĺİ": 5001,
      "æ³°åĿ¦å°¼åħĭåı·": 5002,
      "ç¼ºä¹ı": 5003,
      "åĪĨæķ°": 5004,
      "æķ´éĻ¤": 5005,
      "æĸĩæĺİ": 5006,
      "ç»ĻæĪĳä¸Ģä¸ª": 5007,
      "å·¾": 5008,
      "åıįé¦Ī": 5009,
      "å¯¹åħ¶": 5010,
      "è°ľ": 5011,
      "vel": 5012,
      "æ³¥": 5013,
      "ä¸ªæľĪ": 5014,
      "çĶľçĤ¹": 5015,
      "å¯Įæľī": 5016,
      "çĽĨ": 5017,
      "æĦŁåħ´è¶£": 5018,
      "æķ°åŃ¦éĹ®é¢ĺ": 5019,
      "æıŃ": 5020,
      "çĲĥåĳĺ": 5021,
      "çļĦæµģ": 5022,
      "æľīæķĪçļĦ": 5023,
      "çļĦåŁºç¡Ģ": 5024,
      "æľĢæĸ°çļĦ": 5025,
      "çĸ«èĭĹ": 5026,
      "çļĦçŃĶæ¡Īæĺ¯": 5027,
      "è¿ĩåº¦": 5028,
      "æ¯ıä»½": 5029,
      "ĠK": 5030,
      "åĲĦåľ°": 5031,
      "çľ¼çĿĽ": 5032,
      "å§Ĳ": 5033,
      "æĳĦæ°ıåº¦": 5034,
      "ary": 5035,
      "æ®ĸ": 5036,
      "Ġ24": 5037,
      "Ġhas": 5038,
      "æ¡¶": 5039,
      "æ±Ĥåĩº": 5040,
      "èĪŀè¹Ī": 5041,
      "å¤ķ": 5042,
      "åĶ¯ä¸Ģ": 5043,
      "åĸľçĪ±": 5044,
      "çģ«è½¦": 5045,
      "åį«æĺŁ": 5046,
      "çİ»çĴĥ": 5047,
      "çļĦåħ³ç³»": 5048,
      "åĴĮç¤¾ä¼ļ": 5049,
      "å¤ªéĺ³èĥ½": 5050,
      "æĪĳæİ¨èįĲ": 5051,
      "å®ŀçĶ¨": 5052,
      "è¿Ļæ®µæĸĩåŃĹ": 5053,
      "å°¼äºļ": 5054,
      "æİ¢éĻ©": 5055,
      "æĢ§è´¨": 5056,
      "ä»¥ä¸ĭéĹ®é¢ĺ": 5057,
      "çĶ¢": 5058,
      "åĴĮå¹³": 5059,
      "åĪĹè¡¨ä¸Ń": 5060,
      "è´§å¸ģ": 5061,
      "åĩ¯": 5062,
      "æŃ£æĸ¹": 5063,
      "ä¸ĢäºĽåħ³äºİ": 5064,
      "åħīçº¿": 5065,
      "åºĨç¥Ŀ": 5066,
      "æ§": 5067,
      "æĺİåªļ": 5068,
      "èįĴ": 5069,
      "åĢ¼å¾Ĺä¸Ģ": 5070,
      "ä»¥æĿ¥": 5071,
      "æĿī": 5072,
      "åľ¨æŃ¤": 5073,
      "èĭ±éĽĦ": 5074,
      "åĲĮæł·": 5075,
      "æŁľ": 5076,
      "è±¡å¾ģ": 5077,
      "ä½łä¼ļ": 5078,
      "æĢ»çļĦ": 5079,
      "ä¸ĢçĤ¹": 5080,
      "çº¢æ¥¼": 5081,
      "æĸĳ": 5082,
      "æ¼ł": 5083,
      "åĲ¬åĪ°": 5084,
      "def": 5085,
      "åİ¨æĪ¿": 5086,
      "èīºæľ¯å®¶": 5087,
      "å¤ļå°ĳä¸ª": 5088,
      "æĢİä¹Īæł·": 5089,
      "é¹¿": 5090,
      "åĩºçļĦ": 5091,
      "ä½¿çĶ¨çļĦ": 5092,
      "åĨĻä¸Ģé¦ĸ": 5093,
      "åĲĪåĲĮ": 5094,
      "åĽŀå½Ĵ": 5095,
      "äººå¿ĥ": 5096,
      "çĶŁæĪĲæĳĺè¦ģ": 5097,
      "æĸ¯åĿ¦": 5098,
      "çĽĹ": 5099,
      "ï¼ļ\\": 5100,
      "æī®æ¼Ķ": 5101,
      "åİ¿": 5102,
      "èģļä¼ļ": 5103,
      "çİĽä¸½": 5104,
      "Tom": 5105,
      "å¸¦æľī": 5106,
      "çĲĨè§£åĴĮ": 5107,
      "Ġfrom": 5108,
      "å°ıæĺİä»Ĭå¤©": 5109,
      "æĪĲä¸Ģä¸ª": 5110,
      "å¦Ĩ": 5111,
      "Ġsentence": 5112,
      "åķĨåĬ¡": 5113,
      "éĤĢ": 5114,
      "æĽ´å®¹æĺĵ": 5115,
      "ç£ģ": 5116,
      "ç§įæ¤į": 5117,
      "äº§çĶŁäºĨ": 5118,
      "Ġï¼Ī": 5119,
      "æĻ¶": 5120,
      "çļĦç¨ĭ": 5121,
      "Ġ50": 5122,
      "åĲįè¯įçŁŃè¯Ń": 5123,
      "çļĦæıĲ": 5124,
      "æ³ī": 5125,
      "åĲĪçī©": 5126,
      "çļĦæ·±": 5127,
      "âĢĻ": 5128,
      "åı¥åŃĲçļĦ": 5129,
      "åĨįçĶŁ": 5130,
      "æĦŁåĪ°éĿŀå¸¸": 5131,
      "è¿Ļæł·çļĦ": 5132,
      "æ±¤å§Ĩ": 5133,
      "æĺ¯éĿŀå¸¸": 5134,
      "éģ¥": 5135,
      "åĴĮæ°´": 5136,
      "éŃĤ": 5137,
      "éĿ¢ç²ī": 5138,
      "å°ĳå¹´": 5139,
      "Ġso": 5140,
      "åĽ¾ä¹¦é¦Ĩ": 5141,
      "åĽŀçŃĶè¿Ļä¸ªéĹ®é¢ĺ": 5142,
      "æĪĳæĥ³çŁ¥éģĵ": 5143,
      "çļĦåĲįç§°": 5144,
      "å®¿": 5145,
      "åĪĨåĪ«æĺ¯": 5146,
      "ip": 5147,
      "æĪĳè¦ģ": 5148,
      "èĩªèº«": 5149,
      "ç¿Ĵ": 5150,
      "return": 5151,
      "çļĦæİ¨çĲĨ": 5152,
      "åľ¨ä¸ŃåĽ½": 5153,
      "æĢ§æł¼": 5154,
      "åįģå¹´": 5155,
      "67": 5156,
      "è§Ĩä¸º": 5157,
      "Ġres": 5158,
      "è¿Ļç»Ħ": 5159,
      "ä½ĵçļĦ": 5160,
      "çļĦåħ·ä½ĵ": 5161,
      "range": 5162,
      "æł¹æį®ä»¥ä¸ĭæĸĩæľ¬": 5163,
      "ä¸īè§Ĵå½¢": 5164,
      "åı·çłģ": 5165,
      "ä¸ĵæ³¨": 5166,
      "éģĩåĪ°äºĨ": 5167,
      "çļĦæ¸ħ": 5168,
      "äººä»¬çļĦ": 5169,
      "é¢ĳçİĩ": 5170,
      "åĩºçİ°äºĨ": 5171,
      "çº¢æ¥¼æ¢¦": 5172,
      "è¾ŀ": 5173,
      "è¿Ľå±ķ": 5174,
      "æµħ": 5175,
      "ä½ĨæĪĳ": 5176,
      "è¢«å¹¿æ³Ľ": 5177,
      "çļĦçĿ": 5178,
      "åĮĸåĴĮ": 5179,
      "è¨Ī": 5180,
      "ä¹ĺæ³ķ": 5181,
      "éĢĹ": 5182,
      "åħ¶ä¸ŃåĮħæĭ¬": 5183,
      "ç©·": 5184,
      "ĠSt": 5185,
      "Ġus": 5186,
      "åıł": 5187,
      "çŁ©": 5188,
      "çĬ¯ç½ª": 5189,
      "æĺ¯ç¾İåĽ½": 5190,
      "èĻ¾": 5191,
      "Ġmo": 5192,
      "èĩªä¸»": 5193,
      "ç½©": 5194,
      "çļĦæĻºèĥ½": 5195,
      "åľ¨æľªæĿ¥": 5196,
      "çĽĪ": 5197,
      "é¢Ī": 5198,
      "çļĦæ¨¡": 5199,
      "ï¼ģâĢĿ": 5200,
      "è®¤çŁ¥": 5201,
      "è°·æŃĮ": 5202,
      "éĥ½åı¯ä»¥": 5203,
      "ä¸Ńå¤®": 5204,
      "è´¸": 5205,
      "èĵĿèī²çļĦ": 5206,
      "so": 5207,
      "æŃ¥è¡Į": 5208,
      "è¯ķåĽ¾": 5209,
      "å¯¹è¯ĿåĨħå®¹": 5210,
      "æ®ĭ": 5211,
      "åľ¨è¿Ļä¸ªåı¥åŃĲä¸Ń": 5212,
      "gle": 5213,
      "çļĦæľįåĬ¡": 5214,
      "èĪį": 5215,
      "å¥½çľĭ": 5216,
      "ç¿Ķ": 5217,
      "æĪĳæĥ³è¦ģ": 5218,
      "Ùħ": 5219,
      "çļĦæīĢæľī": 5220,
      "åľ¨åĵªéĩĮ": 5221,
      "æľĢå°ı": 5222,
      "å¹¶è§£éĩĬ": 5223,
      "æĺ¯åĲ¦æľī": 5224,
      "åĮĻ": 5225,
      "åı¯ä»¥èĢĥèĻĳ": 5226,
      "å¨ľ": 5227,
      "è¯Ĺäºº": 5228,
      "å¾ĹåĪĨ": 5229,
      "æ©¡": 5230,
      "çļĦä½¿çĶ¨": 5231,
      "è¿Ł": 5232,
      "ä¿Ħ": 5233,
      "åı¯èĥ½çļĦ": 5234,
      "ä¸įéľĢè¦ģ": 5235,
      "æĬµ": 5236,
      "ç»´æĮģ": 5237,
      "åıªè¦ģ": 5238,
      "èģĶåĲĪ": 5239,
      "ç¿ł": 5240,
      "æłĳæľ¨": 5241,
      "çļĦé«ĺ": 5242,
      "æł¹æį®ç»Ļå®ļ": 5243,
      "æĸĩæ¡ĪçĶŁæĪĲ": 5244,
      "åı¤åħ¸": 5245,
      "åŀ«": 5246,
      "æ²Ļåıĳ": 5247,
      "åįİçĽĽ": 5248,
      "æĭ¼åĨĻéĶĻè¯¯": 5249,
      "è®¨è®ºäºĨ": 5250,
      "eb": 5251,
      "åĸľåī§": 5252,
      "é£İåĲ¹": 5253,
      "çļĦåıĺåĮĸ": 5254,
      "rou": 5255,
      "ä¸Ģç³»åĪĹ": 5256,
      "è¿ĲçĶ¨": 5257,
      "ally": 5258,
      "éī": 5259,
      "ï¼ħ": 5260,
      "æĦŁæŁĵ": 5261,
      "åĮºåĪ«": 5262,
      "éŃħåĬĽ": 5263,
      "åįİçĽĽé¡¿": 5264,
      "çģµæ´»": 5265,
      "æĿ¥è§£åĨ³è¿Ļä¸ªéĹ®é¢ĺ": 5266,
      "éĢļå¸¸æĺ¯": 5267,
      "åı¦ä¸Ģ": 5268,
      "æĥ³æ³ķ": 5269,
      "çŃĶæ¡Īä¸º": 5270,
      "ç»µ": 5271,
      "éķ¿æĹ¶éĹ´": 5272,
      "æļĤ": 5273,
      "æĸ°æ¬¾": 5274,
      "ç¨¿": 5275,
      "é¢Ħè®¢": 5276,
      "çļĦéľĢæ±Ĥ": 5277,
      "è¿ĺèĥ½": 5278,
      "è¤": 5279,
      "æ¸©é¦¨": 5280,
      "ä¿ĿéĻ©": 5281,
      "çļĦçŁŃæĸĩ": 5282,
      "ä¿¡åı·": 5283,
      "æµģç¨ĭ": 5284,
      "çĶŁæ´»æĸ¹å¼ı": 5285,
      "å±ıå¹ķ": 5286,
      "ĠçĶ¨": 5287,
      "èģĮä½į": 5288,
      "éĢĨ": 5289,
      "åį¢": 5290,
      "çĥ¦": 5291,
      "æĢ»çļĦæĿ¥è¯´": 5292,
      "150": 5293,
      "ĠåĽłæŃ¤": 5294,
      "çŁ¶": 5295,
      "å¥ĩæķ°": 5296,
      "çĥŃæĥħ": 5297,
      "ç¢į": 5298,
      "åħħè¶³": 5299,
      "æľĢåĸľæ¬¢": 5300,
      "åľ°åĽ¾": 5301,
      "åİ»å¹´": 5302,
      "Ġä¸ªèĭ¹æŀľ": 5303,
      "äºĭæķħ": 5304,
      "Ġ14": 5305,
      "è§£åĨ³éĹ®é¢ĺ": 5306,
      "éĽ¾": 5307,
      "æĺĵæĩĤ": 5308,
      "æľºåĪ¶": 5309,
      "2020": 5310,
      "ç®Ģä»ĭ": 5311,
      "áŁ": 5312,
      "2018": 5313,
      "åľ¨ä»¥ä¸ĭ": 5314,
      "å·¥ç¨ĭå¸Ī": 5315,
      "ç»Īäºİ": 5316,
      "åĪ«äºº": 5317,
      "åħįçĸ«": 5318,
      "çł´åĿı": 5319,
      "çļĦæ°Ķæģ¯": 5320,
      "ptions": 5321,
      "åķı": 5322,
      "çİ¯å¢ĥä¿ĿæĬ¤": 5323,
      "æł¹æį®æıĲä¾ĽçļĦ": 5324,
      "éĥ½èĥ½": 5325,
      "ĠChin": 5326,
      "æĺ¯åħ³äºİ": 5327,
      "çĶ»éĿ¢": 5328,
      "appy": 5329,
      "çļĦåŃ£èĬĤ": 5330,
      "åĴĮå°ı": 5331,
      "åĽ½åĨħ": 5332,
      "éģĵè·¯": 5333,
      "é¢Ħè®¡": 5334,
      "æ³½": 5335,
      "è¾ĵåĩºç»ĵæŀľ": 5336,
      "åĨ¬å¤©": 5337,
      "ä¸įè¶³": 5338,
      "å©´": 5339,
      "ä¸ªåįķè¯į": 5340,
      "çĶ·æĢ§": 5341,
      "è¿ĳå¹´æĿ¥": 5342,
      "é¸ŁåĦ¿": 5343,
      "Ġyour": 5344,
      "åħĭæľį": 5345,
      "åĩºçīĪ": 5346,
      "å¥¥è¿Ĳ": 5347,
      "éĶģ": 5348,
      "çĽ®çļĦæĺ¯": 5349,
      "ä¸įåĨį": 5350,
      "å¥½äºĨ": 5351,
      "å¾Īæľī": 5352,
      "ä¿Ŀæļĸ": 5353,
      "Ġlove": 5354,
      "ĠæĬĬ": 5355,
      "å¤©çĦ¶": 5356,
      "iPhone": 5357,
      "ĠU": 5358,
      "å¦Ĥæŀľä½łæĥ³": 5359,
      "å®½æĿ¾": 5360,
      "è£¡": 5361,
      "æĴĳ": 5362,
      "æİĺ": 5363,
      "åĬłçĥŃ": 5364,
      "è¨Ń": 5365,
      "åĪĨç»Ļä»ĸçļĦ": 5366,
      "å£³": 5367,
      "åľºåĲĪ": 5368,
      "åģ¥åº·é¥®é£Ł": 5369,
      "éĢıæ°Ķ": 5370,
      "ä¸§": 5371,
      "åĭĥ": 5372,
      "è¾£æ¤Ĵ": 5373,
      "æľĢä½İ": 5374,
      "æ¯ıå¹´": 5375,
      "äº¤äºĴ": 5376,
      "äºĴçĽ¸": 5377,
      "è±ĨèħĲ": 5378,
      "æ¯Ķåĸ»": 5379,
      "æĬĬè¿Ļåı¥è¯Ŀ": 5380,
      "æģ¢": 5381,
      "æĺŁæĺŁ": 5382,
      "éĿ¢æĿ¡": 5383,
      "ä¾¿åĪ©": 5384,
      "è´ŁéĿ¢å½±åĵį": 5385,
      "åī²": 5386,
      "åĪ¶æĪĲ": 5387,
      "æĺĨ": 5388,
      "çĽ¸åºĶçļĦ": 5389,
      "æĺİäº®": 5390,
      "æ¶¨": 5391,
      "Ġpe": 5392,
      "åĲĥæİī": 5393,
      "âĢ¦âĢ¦": 5394,
      "èµİ": 5395,
      "éŀĭåŃĲ": 5396,
      "æĳĦåħ¥": 5397,
      "æ¡ĮåŃĲ": 5398,
      "åļ": 5399,
      "è¯·æ±Ĥ": 5400,
      "æĽ´å¿«": 5401,
      "çĮľ": 5402,
      "è®¾è®¡ä¸Ģä¸ª": 5403,
      "æĿīçŁ¶": 5404,
      "éī´": 5405,
      "çķ¶": 5406,
      "å£¤": 5407,
      "åľºæīĢ": 5408,
      "èĩªçĦ¶çģ¾å®³": 5409,
      "é¼»": 5410,
      "ile": 5411,
      "æĨ": 5412,
      "èĽĩ": 5413,
      "ransl": 5414,
      "éĩįå¤§": 5415,
      "æ¶Īæģ¯": 5416,
      "è®²è¿°äºĨä¸Ģä¸ª": 5417,
      "æĲħæĭĮåĿĩåĮĢ": 5418,
      "æľĭåıĭä»¬": 5419,
      "æĸĩæľ¬éĶĻè¯¯": 5420,
      "ä¿¡ä»»": 5421,
      "æ¶µçĽĸ": 5422,
      "çļĦçĿ¡": 5423,
      "ÙĬ": 5424,
      "æĪª": 5425,
      "æĪĳæĺ¯": 5426,
      "è°Ĳ": 5427,
      "æĸ°éĹ»æĸĩç«ł": 5428,
      "éĨĭ": 5429,
      "æ©Ħæ¦Ħæ²¹": 5430,
      "å²ģæľĪ": 5431,
      "ÙĨ": 5432,
      "è¯Ńæ³ķåĴĮ": 5433,
      "è´Ńçī©æ¸ħåįķ": 5434,
      "åīįæĻ¯": 5435,
      "å¾ŀ": 5436,
      "åİĤ": 5437,
      "å¦Ĥæŀľä½łåĸľæ¬¢": 5438,
      "è®©äººä»¬": 5439,
      "èħ¾": 5440,
      "æķĮ": 5441,
      "æľĪçĲĥ": 5442,
      "æĽ¿æį¢ä¸º": 5443,
      "åħļ": 5444,
      "ä¼ŀ": 5445,
      "éĿ¢ä¸Ĭ": 5446,
      "è®¯": 5447,
      "æīİ": 5448,
      "èĥ½ä¸įèĥ½": 5449,
      "è¯·è¾ĵåħ¥": 5450,
      "æľįè£ħ": 5451,
      "è´Łè´£": 5452,
      "æµĵéĥģ": 5453,
      "ç¾İåĳ³çļĦ": 5454,
      "ire": 5455,
      "ese": 5456,
      "å¼Ĥå¸¸": 5457,
      "çļĦè´¨éĩı": 5458,
      "ç³Ĭ": 5459,
      "Ġworld": 5460,
      "æ¼«æŃ¥": 5461,
      "è¿Ļæĺ¯ä¸Ģç¯ĩ": 5462,
      "åģıå¥½": 5463,
      "æ°¢": 5464,
      "æµĭéĩı": 5465,
      "ç©¿è¶Ĭ": 5466,
      "é¢ĺæĦı": 5467,
      "åģ·": 5468,
      "çº¤ç»´": 5469,
      "çĲĥéĺŁ": 5470,
      "æĦģ": 5471,
      "çī¹æĢ§": 5472,
      "ect": 5473,
      "ä¸ŃçļĦæīĢæľī": 5474,
      "èĬĤçĽ®": 5475,
      "Ġthis": 5476,
      "æģĲæĢĸ": 5477,
      "çļĦç¤¾ä¼ļ": 5478,
      "äººå£«": 5479,
      "éŁ¿": 5480,
      "æºª": 5481,
      "æ³ª": 5482,
      "åĪĽä½ľä¸Ģé¦ĸ": 5483,
      "å¤įæĿĤçļĦ": 5484,
      "æı´": 5485,
      "å¤©æ°Ķé¢ĦæĬ¥": 5486,
      "åĩºéĹ¨": 5487,
      "åħĪçĶŁ": 5488,
      "æ¯ıä¸ªå°ıæľĭåıĭ": 5489,
      "Ġnew": 5490,
      "ä¸įå¤ª": 5491,
      "çĽ¸åıį": 5492,
      "æ´ĽæĿīçŁ¶": 5493,
      "äº¦": 5494,
      "ï¼ļ$": 5495,
      "za": 5496,
      "ï½": 5497,
      "è¿Ļä½į": 5498,
      "ç¾İå¦Ļ": 5499,
      "æ¬¡æķ°": 5500,
      "çļĦæŃ¥éª¤": 5501,
      "åĴĮæľįåĬ¡": 5502,
      "Ġ×": 5503,
      "ange": 5504,
      "åıĭå¥½": 5505,
      "æĹłäºº": 5506,
      "éĽĨä¸Ń": 5507,
      "áĥ": 5508,
      "æŀľæ±ģ": 5509,
      "è´¾": 5510,
      "çĶµåĬ¨": 5511,
      "æİ¨èįĲä¸ĢäºĽ": 5512,
      "ial": 5513,
      "åĩºåıĳ": 5514,
      "ç¼ĸç¨ĭè¯Ńè¨Ģ": 5515,
      "ep": 5516,
      "å¸Ĥä¸Ńå¿ĥ": 5517,
      "è¡¨ç¤ºä¸º": 5518,
      "åľ¨å®¶éĩĮ": 5519,
      "æľĪäº®": 5520,
      "äºĨä¸Ģåıª": 5521,
      "ä¼ĺéĽħ": 5522,
      "ä¼Ļä¼´": 5523,
      "æ¸©å®¤æ°Ķä½ĵ": 5524,
      "æľīéĻĲ": 5525,
      "ä»ĸä»¬åľ¨": 5526,
      "oogle": 5527,
      "ä½©": 5528,
      "äººä½ĵ": 5529,
      "è¯¥åħ¬åı¸": 5530,
      "é¢ĨåŁŁçļĦ": 5531,
      "åıĸå¾ĹäºĨ": 5532,
      "çļĦéĢŁåº¦": 5533,
      "è¾Ľ": 5534,
      "åħ¨éĥ¨": 5535,
      "çļĦæ°ĽåĽ´": 5536,
      "ç°": 5537,
      "éĿŀæ´²": 5538,
      "ä¾£": 5539,
      "èĤĸçĶ³": 5540,
      "æľīæľº": 5541,
      "å¯¦": 5542,
      "2000": 5543,
      "æķĳèµİ": 5544,
      "Java": 5545,
      "éĤ¦": 5546,
      "å°Ĭæķ¬": 5547,
      "æĪ°": 5548,
      "æľīä¸ĢäºĽ": 5549,
      "æī¾åĪ°äºĨ": 5550,
      "ä¼ı": 5551,
      "è°ĥèĬĤ": 5552,
      "Ġä»ĸ": 5553,
      "æ¨£": 5554,
      "è¯·åĽŀçŃĶ": 5555,
      "è£Ĥ": 5556,
      "ä¸¾åĬŀ": 5557,
      "ç§ĭåŃ£": 5558,
      "Al": 5559,
      "çĽ¸å½ĵ": 5560,
      "æĻºèĥ½å®¶å±ħ": 5561,
      "æĢ»åħ±æľī": 5562,
      "çļĦå£°éŁ³": 5563,
      "çģ«æĺŁ": 5564,
      "ĠV": 5565,
      "è¿Ļæ¬¡": 5566,
      "Ġad": 5567,
      "è¥¿çĵľ": 5568,
      "éľĢè¦ģæ³¨æĦıçļĦæĺ¯": 5569,
      "ä½Ĩä»ĸ": 5570,
      "èľľèľĤ": 5571,
      "çĳŁ": 5572,
      "è¿Ļåº§": 5573,
      "åĪĨå¾Ĺ": 5574,
      "Options": 5575,
      "æĬ¹": 5576,
      "éĿŀå¸¸éĩįè¦ģ": 5577,
      "çµ±": 5578,
      "äººæķ°ä¸º": 5579,
      "ç»Ļäºº": 5580,
      "çļĦæİĴ": 5581,
      "Ð¾Ð": 5582,
      "å¹´è½»çļĦ": 5583,
      "æĿ¨": 5584,
      "å¤§èĦĳ": 5585,
      "å®īéĿĻ": 5586,
      "å¹¶è¿Ľè¡Į": 5587,
      "æīĭè¡¨": 5588,
      "éĿ¢åĽ¢": 5589,
      "ä¸ĩçī©": 5590,
      "çļĦæ¤": 5591,
      "æ¦Ĥè¿°": 5592,
      "æ°§æ°Ķ": 5593,
      "çķªèĮĦéħ±": 5594,
      "çļĦæ¶Ī": 5595,
      "åľ¨è¿ĩåİ»": 5596,
      "ä¿Ŀéļľ": 5597,
      "æĵļ": 5598,
      "éľĢè¦ģå°Ĩ": 5599,
      "Ġcat": 5600,
      "ä¸»æ¼Ķ": 5601,
      "ä»İå°ı": 5602,
      "æķ°æį®åºĵ": 5603,
      "åİŁå§ĭæĸĩæľ¬": 5604,
      "æĭĵ": 5605,
      "æĵ¦": 5606,
      "å¤§éĩıçļĦ": 5607,
      "ä¸ĭçļĦ": 5608,
      "çĶŁåĬ¨": 5609,
      "é©±": 5610,
      "éĺ¿çĶĺ": 5611,
      "éĢĻåĢĭ": 5612,
      "åĩºè¡Į": 5613,
      "æĶ¾å¼ĥ": 5614,
      "ç»Ĩèħ»": 5615,
      "æĿİåĽĽ": 5616,
      "åĸ·": 5617,
      "åĽŀåĪ°": 5618,
      "åĲĳéĩı": 5619,
      "æīĵéĢł": 5620,
      "ÙĪ": 5621,
      "æĬĳ": 5622,
      "åī©ä¸ĭçļĦ": 5623,
      "çļĦæĭ¼": 5624,
      "ä¹ĭä¸Ń": 5625,
      "å¯ĴåĨ·": 5626,
      "çļĦçĮ«": 5627,
      "å®¶æĹı": 5628,
      "è³½": 5629,
      "æ¾³": 5630,
      "è®²ä¸Ģä¸ª": 5631,
      "æ¢°": 5632,
      "çļĦåĬĽéĩı": 5633,
      "èĥ¶": 5634,
      "ç¾İæĻ¯": 5635,
      "Ġes": 5636,
      "å¼ķåıĳ": 5637,
      "å¥¶æ²¹": 5638,
      "éĴ¢çĲ´": 5639,
      "åı¯åĨįçĶŁ": 5640,
      "åĨ¥æĥ³": 5641,
      "çĵ£": 5642,
      "è¿Ļæĺ¯åĽłä¸º": 5643,
      "random": 5644,
      "æĻ¯è§Ĥ": 5645,
      "å¸®æĪĳæĥ³": 5646,
      "å¼ºå¤§": 5647,
      "Ã³": 5648,
      "ç¢§": 5649,
      "åĳĢ": 5650,
      "åŃ¦ç§ĳ": 5651,
      "hen": 5652,
      "æİ¥è¿ĳ": 5653,
      "çĤī": 5654,
      "èĭ±å°º": 5655,
      "æĢİä¹Īè¯´": 5656,
      "éĻĪè¿°åı¥": 5657,
      "å¯¿åĳ½": 5658,
      "æľºåľº": 5659,
      "ç¿»è¯ĳæĪĲè¥¿çıŃçīĻè¯Ń": 5660,
      "æ¯Ķäºļ": 5661,
      "ä¸ĭéĿ¢çļĦéĹ®é¢ĺ": 5662,
      "è®¸å¤ļäºº": 5663,
      "89": 5664,
      "éķ¿åº¦ä¸º": 5665,
      "ÏĢ": 5666,
      "è¿«": 5667,
      "å¤§æķ°æį®": 5668,
      "He": 5669,
      "çļĦçĿ¡çľł": 5670,
      "å¤§çĨĬçĮ«": 5671,
      "çļĦçĸ": 5672,
      "åĴĮæĥħæĦŁ": 5673,
      "çĭ¼": 5674,
      "åĲ¸æĶ¶": 5675,
      "å°¤åħ¶æĺ¯": 5676,
      "ä¸ŃæıĲåıĸ": 5677,
      "åľ°éľĩ": 5678,
      "ens": 5679,
      "æĿİæĺİ": 5680,
      "æ½ľåľ¨": 5681,
      "è¥¿çº¢": 5682,
      "å°ĸ": 5683,
      "æłĸ": 5684,
      "çļĦç¬ĳ": 5685,
      "å¯ĵ": 5686,
      "å®ļå¾ĭ": 5687,
      "åŀĤ": 5688,
      "è¥¿çº¢æŁ¿": 5689,
      "ä¸Ģèµ·åİ»": 5690,
      "åĭ¤": 5691,
      "å¾®ç¬ĳ": 5692,
      "per": 5693,
      "åĮħåĲ«äºĨ": 5694,
      "éĢĹåı·": 5695,
      "æĽ´åĩĨç¡®": 5696,
      "å°½åĬĽ": 5697,
      "æĺ¯å¦Ĥä½ķ": 5698,
      "æħĪ": 5699,
      "å¯Ĩåº¦": 5700,
      "è¯ģæį®": 5701,
      "è¯·ä¸ºæĪĳ": 5702,
      "æ´»åĬĽ": 5703,
      "ated": 5704,
      "DNA": 5705,
      "?\"": 5706,
      "Ġte": 5707,
      "å¤§å¤ļæķ°": 5708,
      "æķıæį·çļĦæ£ķèī²çĭĲçĭ¸è·³è¿ĩ": 5709,
      "èĨĢ": 5710,
      "åĴĮæĮĳæĪĺ": 5711,
      "éĤ»": 5712,
      "ax": 5713,
      "çģ£": 5714,
      "æĻļé¤Ĳ": 5715,
      "å¿ĥèĦı": 5716,
      "Ġsu": 5717,
      "Ġå°ıæĺİ": 5718,
      "æĺ¯åĽłä¸º": 5719,
      "èĤ©": 5720,
      "å¼ºå¤§çļĦ": 5721,
      "äºļæ´²": 5722,
      "Ġdes": 5723,
      "èµĦæĸĻ": 5724,
      "çļĦç¿»": 5725,
      "å°½éĩı": 5726,
      "ä¸įåĪ°": 5727,
      "å¸¦çĿĢ": 5728,
      "æ¯ģ": 5729,
      "æŁĲç§į": 5730,
      "çľŁæĺ¯": 5731,
      "è¯ĨåĪ«åĩº": 5732,
      "çļĦæĶ¶": 5733,
      "Ġå°ı": 5734,
      "æıĲåĩºäºĨ": 5735,
      "ä¸Ģæ®µæĸĩåŃĹ": 5736,
      "ç²¾å½©": 5737,
      "æĪĳéĿŀå¸¸": 5738,
      "ä¸įèµ·": 5739,
      "åĽŀæĶ¶": 5740,
      "æĥħæĦŁåĪĨç±»": 5741,
      "çļĦéĺ³åħī": 5742,
      "çĶµå½±åĲįç§°": 5743,
      "ä¿®èº«": 5744,
      "çļĦæĦŁåıĹ": 5745,
      "æľīäºº": 5746,
      "çĽ¸ä¼¼åº¦": 5747,
      "åĬ¨åĬĽ": 5748,
      "éĺĲ": 5749,
      "è¿Ļä¸ªäºº": 5750,
      "Ch": 5751,
      "æľĢè¿ĳçļĦ": 5752,
      "ä¸ĬåįĪ": 5753,
      "input": 5754,
      "ä»İç»Ļå®ļçļĦ": 5755,
      "Ġpr": 5756,
      "å±±èĦī": 5757,
      "éĺ¶æ®µ": 5758,
      "éģµå®Ī": 5759,
      "åľĨå½¢": 5760,
      "ä¼ļåľ¨": 5761,
      "æ¼ı": 5762,
      "æĺ¾èĳĹ": 5763,
      "çıįæĥľ": 5764,
      "%ï¼Į": 5765,
      "åįķè¯įçļĦ": 5766,
      "äºĮæ°§åĮĸ": 5767,
      "AP": 5768,
      "æĹħç¨ĭ": 5769,
      "ik": 5770,
      "æĽ´æľī": 5771,
      "34": 5772,
      "æĺ¾å¾Ĺ": 5773,
      "ç»ĻæĤ¨": 5774,
      "ä½ľä¸ļ": 5775,
      "è´¯": 5776,
      "ä»¥ä¸ĭæĸĩæľ¬": 5777,
      "çļĦäº§åĵģ": 5778,
      "åīĳ": 5779,
      "æĹ©æĻ¨": 5780,
      "çĤİçĥŃ": 5781,
      "å¹³æĸ¹ç±³": 5782,
      "çļĦæĦıæĢĿæĺ¯": 5783,
      "Ġé¦ĸåħĪ": 5784,
      "ä¸ªæ°´æŀľ": 5785,
      "çīĩæ®µ": 5786,
      "çĦ¶åĲİå°Ĩ": 5787,
      "åĨħçļĦ": 5788,
      "----": 5789,
      "çļĦçĬ¶": 5790,
      "æģ¢å¤į": 5791,
      "ä¸ºä¸»": 5792,
      "åı¯ä»¥æıĲé«ĺ": 5793,
      "Ġ40": 5794,
      "å¾Īå¥½çļĦ": 5795,
      "åľ¨æĪĳ": 5796,
      "æĽ´ä¸º": 5797,
      "æ°´åĴĮ": 5798,
      "èģĺ": 5799,
      "æµ·å¹³éĿ¢": 5800,
      "èŀįåĲĪ": 5801,
      "ç²®": 5802,
      "åį³å°Ĩ": 5803,
      "å¸ħ": 5804,
      "ä»¥ä¸ĭæĺ¯ä¸Ģä¸ª": 5805,
      "å½±éŁ¿": 5806,
      "çļĦæ¯Ķä¾ĭ": 5807,
      "è¡¬è¡«": 5808,
      "çļĦè·Ŀç¦»": 5809,
      "åįıè®®": 5810,
      "è¸ı": 5811,
      "à¯į": 5812,
      "æĪĳåĴĮ": 5813,
      "ä¼į": 5814,
      "çĵ¦": 5815,
      "ample": 5816,
      "æĦŁåĴĮ": 5817,
      "ä½ĵç§¯": 5818,
      "çļĦå¤©æ°Ķé¢ĦæĬ¥": 5819,
      "çĽĲåĴĮ": 5820,
      "ä¸īè§Ĵå½¢çļĦ": 5821,
      "ç²¾èĩ´": 5822,
      "åľ°åĲį": 5823,
      "åħīèĬĴ": 5824,
      "æĬĢæľ¯åĴĮ": 5825,
      "æ²ĥ": 5826,
      "ount": 5827,
      "æĢĿå¿µ": 5828,
      "æ·±è¿ľ": 5829,
      "è¿ĺæľīåħ¶ä»ĸ": 5830,
      "In": 5831,
      "éľį": 5832,
      "æīĭæ®µ": 5833,
      "åĳĪçİ°åĩº": 5834,
      "çĶ¨éĢĶ": 5835,
      "æŃĮæīĭ": 5836,
      "éļ¾å¿ĺ": 5837,
      "æĪĳåĸľæ¬¢åľ¨": 5838,
      "è®Ĭ": 5839,
      "æĿ¥åĪ°": 5840,
      "æĪĳä»¬åı¯ä»¥å°Ĩ": 5841,
      "ä¸Ĭæĸĩ": 5842,
      "ä¾ĽåºĶ": 5843,
      "120": 5844,
      "çļĦç´": 5845,
      "çĺ¦": 5846,
      "æııåĨĻ": 5847,
      "åı£åı·": 5848,
      "æľīæĹ¶": 5849,
      "éĽ»": 5850,
      "èĭ¹æŀľåħ¬åı¸": 5851,
      "åħ¨éĿ¢": 5852,
      "á»": 5853,
      "çļĦæĥħèĬĤ": 5854,
      "çļĦæ²Ļ": 5855,
      "æĦ¿æĦı": 5856,
      "æĪ·å¤ĸæ´»åĬ¨": 5857,
      "å®ĥåľ¨": 5858,
      "åįĹæŀģ": 5859,
      "æĹĹ": 5860,
      "Ġsp": 5861,
      "æ£ĭ": 5862,
      "è¯»ä¹¦": 5863,
      "åĴĮæĹ¶éĹ´": 5864,
      "å¥³åŃĲ": 5865,
      "åĬłåħ¥éĢĤéĩı": 5866,
      "å¤§æĪĺ": 5867,
      "æµ·æµª": 5868,
      "ä¸ĵå®¶": 5869,
      "çĶµè§Ĩåī§": 5870,
      "æĹħæ¸¸æĻ¯çĤ¹": 5871,
      "ç»ĦæĪĲçļĦ": 5872,
      "èĨľ": 5873,
      "è¿Ļä»½": 5874,
      "åŃ¦æľ¯": 5875,
      "ä¸ŃåĽ½çļĦ": 5876,
      "åĭĻ": 5877,
      "ä¸įç¡®å®ļ": 5878,
      "åı¥åŃĲä¸ŃçļĦ": 5879,
      "åľŁå£¤": 5880,
      "å®ĥä»¬ä¹ĭéĹ´çļĦ": 5881,
      "æł·æľ¬": 5882,
      "çļĦæĬĢèĥ½": 5883,
      "ç¡¬å¸ģ": 5884,
      "å¥¥è¿Ĳä¼ļ": 5885,
      "æŀ«": 5886,
      "æ´ª": 5887,
      "èľĤèľľ": 5888,
      "åħĭçļĦæķĳèµİ": 5889,
      "æīĢä»¥å°ıæĺİ": 5890,
      "çĶ·çĶŁäººæķ°": 5891,
      "è¿Ļåľº": 5892,
      "å¤±åİ»": 5893,
      "åĴĮè°Ĳ": 5894,
      "æ¼Ķè®²": 5895,
      "çļĦæĥħç»ª": 5896,
      "æī«": 5897,
      "çŃĽ": 5898,
      "æĪĲæŀľ": 5899,
      "å¼ķäºº": 5900,
      "éĺ³åħīæĺİåªļ": 5901,
      "è¯Ńå¢ĥ": 5902,
      "åįĥåħĭ": 5903,
      "åĿĲåľ¨": 5904,
      "æĽ´æĶ¹": 5905,
      "éĢ²è¡Į": 5906,
      "èĤĸçĶ³åħĭçļĦæķĳèµİ": 5907,
      "å¿ĥåĴĮ": 5908,
      "å¾ĪæĬ±æŃī": 5909,
      "æĶ¹æŃ£": 5910,
      "ä»·åĢ¼è§Ĥ": 5911,
      "åĲįè¨Ģ": 5912,
      "åĮĸåĲĪçī©": 5913,
      "æ¨¡ä»¿": 5914,
      "åħĭæĸ¯": 5915,
      "è¯·æ³¨æĦı": 5916,
      "èĢģèĻİ": 5917,
      "åŁ¹åħ»": 5918,
      "åŃ©åŃĲä»¬": 5919,
      "å¹¼": 5920,
      "åľ°çĲĨ": 5921,
      "55": 5922,
      "åŃ¦èĢħ": 5923,
      "å¹¶ä¸įæĺ¯": 5924,
      "88": 5925,
      "Ġè¿Ļä¸ª": 5926,
      "ç®ĢåĮĸ": 5927,
      "è§ĦèĮĥ": 5928,
      "åĲ¬è¯´": 5929,
      "è¿Ī": 5930,
      "èµ¶": 5931,
      "çİĭæĺŁ": 5932,
      "éĩİé¤Ĳ": 5933,
      "æĥ§": 5934,
      "ä¸Ĭæĺł": 5935,
      "con": 5936,
      "ç´łé£Ł": 5937,
      "æĻ®éģį": 5938,
      "ian": 5939,
      "ç»ĻäºĨå°ıçº¢": 5940,
      "uct": 5941,
      "ä¸ºx": 5942,
      "åħ±äº«": 5943,
      "ä¼ĺç¾İ": 5944,
      "åŃĻ": 5945,
      "æľ¬èº«": 5946,
      "å¿ħè¦ģçļĦ": 5947,
      "ç¼ºçĤ¹": 5948,
      "ft": 5949,
      "æĢĴ": 5950,
      "çļĦæ½": 5951,
      "åı¯èĥ½æĢ§": 5952,
      "çļĦä¸ĢäºĽ": 5953,
      "çļĦè¿ĲåĬ¨": 5954,
      "ä¸ĬäºĨ": 5955,
      "è´«": 5956,
      "åĮĹæŀģ": 5957,
      "ä¸įæĸŃåľ°": 5958,
      "çļĦæ¸©åº¦": 5959,
      "æ£µ": 5960,
      "äºļé©¬": 5961,
      "è´¸æĺĵ": 5962,
      "çļĦç¿»è¯ĳ": 5963,
      "ä½ĵçİ°": 5964,
      "éĽķ": 5965,
      "åıįæĺł": 5966,
      "æľįåĬ¡åĳĺ": 5967,
      "æµĨ": 5968,
      "aut": 5969,
      "Ġä½¿çĶ¨": 5970,
      "çļĦå½¢å¼ı": 5971,
      "æĽ´é«ĺ": 5972,
      "é»ŀ": 5973,
      "å¹²åĩĢ": 5974,
      "è®©äººæĦŁåĪ°": 5975,
      "æģ¤": 5976,
      "åıĮæĸ¹": 5977,
      "éĢļä¿¡": 5978,
      "éķ¿åŁİ": 5979,
      "æĬĢè¡ĵ": 5980,
      "ç¬Ķè®°": 5981,
      "çĮ«åĴª": 5982,
      "å¾Ģå¾Ģ": 5983,
      "çĽ¸æ¯Ķ": 5984,
      "åħ¨åĽ½": 5985,
      "çŃīéĹ®é¢ĺ": 5986,
      "å®¶éĩĮ": 5987,
      "Ġhow": 5988,
      "åĴĮåıĳå±ķ": 5989,
      "èĮ«": 5990,
      "åŃ¸ç¿Ĵ": 5991,
      "æīĵç®Ĺ": 5992,
      "ä¿®å¤į": 5993,
      "ä¸ªå°ıæľĭåıĭ": 5994,
      "åĽŀå¤į": 5995,
      "çĽĳæµĭ": 5996,
      "åĮĹäº¬å¸Ĥ": 5997,
      "çļĦè·¯": 5998,
      "åĴĮä¸Ģ": 5999,
      "éĻĮ": 6000,
      "çĲ³": 6001,
      "éªĳèĩªè¡Įè½¦": 6002,
      "ç©ĨæľĹ": 6003,
      "éĤĢè¯·": 6004,
      "und": 6005,
      "äºļé©¬éĢĬ": 6006,
      "æķĪçİĩåĴĮ": 6007,
      "æĤ²ä¼¤": 6008,
      "åĩºä¸Ģä¸ª": 6009,
      "ç¬¼": 6010,
      "äºĮæ°§åĮĸç¢³": 6011,
      "å¦»": 6012,
      "ä¸įå¾Ĺ": 6013,
      "é»Ħçĵľ": 6014,
      "è¶ħçº§": 6015,
      "æĻºèĥ½æīĭæľº": 6016,
      "æĮĩåįĹ": 6017,
      "åģ¥åº·åĴĮ": 6018,
      "çĥŃéĹ¨": 6019,
      "çĿ¡è§ī": 6020,
      "å°¿": 6021,
      "ï¼īï¼ļ": 6022,
      "ç½ĳä¸Ĭ": 6023,
      "ç©ĨæľĹçİĽ": 6024,
      "sum": 6025,
      "ÃŃ": 6026,
      "çīĪåŀĭ": 6027,
      "å¹¶è¿ĶåĽŀ": 6028,
      "æĭħå¿ĥ": 6029,
      ")ãĢĤ": 6030,
      "åı¯å¾Ĺ": 6031,
      "åįĵ": 6032,
      "å¯¹çİ¯å¢ĥ": 6033,
      "Ġ`": 6034,
      "æĹĭè½¬": 6035,
      "ä¾Ŀèµĸ": 6036,
      "åĪĨç»Ļå°ıçº¢": 6037,
      "çļĦç³ĸæŀľæķ°éĩı": 6038,
      "æīĭä¸Ń": 6039,
      "äº§ä¸ļ": 6040,
      "çļĦæĬķ": 6041,
      "å®ŀéĻħä¸Ĭ": 6042,
      "èĭ±éĩĮ": 6043,
      "èµ·æºĲ": 6044,
      "äºĨå¾Īå¤ļ": 6045,
      "ew": 6046,
      "å¯¹äººç±»": 6047,
      "Ġ60": 6048,
      "jour": 6049,
      "åħ§": 6050,
      "è°ĭ": 6051,
      "æĥħå¢ĥ": 6052,
      "åĪ©çĽĬ": 6053,
      "ç§ĳå¹»å°ıè¯´": 6054,
      "ç©ĨæľĹçİĽå³°": 6055,
      "äºĭé¡¹": 6056,
      "æĴĴä¸Ĭ": 6057,
      "æİĴåĲį": 6058,
      "è®¡ç®Ĺæľºè§Ĩè§ī": 6059,
      "åĺ´": 6060,
      "æ»ĭ": 6061,
      "Âł": 6062,
      "æķ°ç»Ħ": 6063,
      "Ġpar": 6064,
      "è¡¨è¾¾å¼ı": 6065,
      "log": 6066,
      "çļĦæĶ¯æĮģ": 6067,
      "æ¯ıç»Ħ": 6068,
      "é²¸é±¼": 6069,
      "åĬłéĢŁ": 6070,
      "ç»ıåħ¸çļĦ": 6071,
      "æĥħæĦŁåĪĨæŀĲ": 6072,
      "é½¿": 6073,
      "åĢ¾åĲĳ": 6074,
      "æĪĳä»Ĭå¤©": 6075,
      "ç®Ĺåĩº": 6076,
      "çļĦæ¢¦æĥ³": 6077,
      "hel": 6078,
      "èº«è¾¹": 6079,
      "ä¼łç»ŁçļĦ": 6080,
      "å®ĺæĸ¹": 6081,
      "æģĴæĺŁ": 6082,
      "ãĢĤï¼Ī": 6083,
      "éķ·": 6084,
      "å°ºå¯¸": 6085,
      "ä¸¤åıª": 6086,
      "éĿŀå¸¸éĢĤåĲĪ": 6087,
      "ä¼ĺåħĪ": 6088,
      "æķħäºĭæĥħèĬĤ": 6089,
      "æµªè´¹": 6090,
      "ä¹ĭæĹħ": 6091,
      "ä¸ŃçļĦåºĶçĶ¨": 6092,
      "çļĦå¹³æĸ¹": 6093,
      "å¹´è½»äºº": 6094,
      "çļĦæĬ¥": 6095,
      "æĽ´æŃ£": 6096,
      "éĤĦ": 6097,
      "åĮ¹éħį": 6098,
      "æĺĤ": 6099,
      "ä¸Ģåĳ¨": 6100,
      "çļĦç¾İæĻ¯": 6101,
      "Ø±": 6102,
      "åĪ¸": 6103,
      "å¤§äºİ": 6104,
      "åĬłå¯Ĩ": 6105,
      "æ¨ª": 6106,
      "Ġplay": 6107,
      "ä»¥ä¸ĭæĺ¯ä¸ĢäºĽ": 6108,
      "åľŁåľ°": 6109,
      "æľīçĽĬ": 6110,
      "çļĦç¨ĭåºı": 6111,
      "åĨĮ": 6112,
      "å¯¹æīĭ": 6113,
      "éĩįè§Ĩ": 6114,
      "ç¿©": 6115,
      "æīĢä»¥ä»ĸ": 6116,
      "æľ¨æĺŁ": 6117,
      "fr": 6118,
      "å¤ļæł·æĢ§": 6119,
      "Ġrange": 6120,
      "é»Ľ": 6121,
      "ç±³é¥Ń": 6122,
      "è½¬æį¢æĪĲ": 6123,
      "è°¢è°¢ä½ł": 6124,
      "çļĦæĻ¯çĤ¹": 6125,
      "æĦĪ": 6126,
      "æ¯ıä¸Ģä¸ª": 6127,
      "çļĦåŃ¦çĶŁ": 6128,
      "çļĦåīį": 6129,
      "çĶŁåĬ¨çī©": 6130,
      "è¿Ļæ®µè¯Ŀ": 6131,
      "çļĦä¸»è¦ģåĨħå®¹": 6132,
      "åı¯åĨįçĶŁèĥ½æºĲ": 6133,
      "now": 6134,
      "ä¹ĭåĴĮ": 6135,
      "çĮ´": 6136,
      "è©²": 6137,
      "çıłç©ĨæľĹçİĽå³°": 6138,
      "åħģ": 6139,
      "åĿĽ": 6140,
      "æ¡Īä»¶": 6141,
      "ç¿»çĤĴ": 6142,
      "ther": 6143,
      "ç¢º": 6144,
      "å¿ĺè®°": 6145,
      "æ¢ģ": 6146,
      "æĪ¿å±ĭ": 6147,
      "ful": 6148,
      "å°±ä¸ļ": 6149,
      "èªŀ": 6150,
      "å¿ĥçĲĨåŃ¦": 6151,
      "Ġz": 6152,
      "åĿ¡": 6153,
      "å©´åĦ¿": 6154,
      "ä¸ŃéĹ´": 6155,
      "å°ıçİĭ": 6156,
      "reat": 6157,
      "èĤīç±»": 6158,
      "ç½Ĺé©¬": 6159,
      "æĶ¾ç½®": 6160,
      "èŃ¦å¯Ł": 6161,
      "my": 6162,
      "ä»¥ä¸ĭæ®µèĲ½": 6163,
      "ah": 6164,
      "è¿Ľè¡ĮæİĴåºı": 6165,
      "ĠØ§": 6166,
      "åİŁåı¥": 6167,
      "æļĹç¤º": 6168,
      "èĬ±æľµ": 6169,
      "æĪ¿åŃĲ": 6170,
      "à´": 6171,
      "å©ļç¤¼": 6172,
      "çļĦåĬŁèĥ½": 6173,
      "æĮĸ": 6174,
      "Ġ?": 6175,
      "Ġbut": 6176,
      "æľºåĻ¨åŃ¦ä¹łç®Ĺæ³ķ": 6177,
      "å¥³çĶŁäººæķ°": 6178,
      "¬éĹ´": 6179,
      "æīĢè¿°": 6180,
      "è¯·å°Ĩ": 6181,
      "æĮīåŃĹæ¯įé¡ºåºı": 6182,
      "éĩıåŃĲåĬĽåŃ¦": 6183,
      "æģ°": 6184,
      "èĩ³åħ³": 6185,
      "çłĶç©¶è¡¨æĺİ": 6186,
      "è¡¨çİ°åĩº": 6187,
      "å®ļåĪ¶": 6188,
      "æĪĲåĬŁçļĦ": 6189,
      "ç»ĻäºĪ": 6190,
      "åİ»åħ¬åĽŃ": 6191,
      "angu": 6192,
      "bers": 6193,
      "import": 6194,
      "çļĦæĹ¥æľŁ": 6195,
      "åı¯èĥ½å¯¼èĩ´": 6196,
      "è¿Ļå°Ĩ": 6197,
      "è¾¹éķ¿": 6198,
      "çļĦçī¹å¾ģ": 6199,
      "æĪĳä¸įèĥ½": 6200,
      "æĿ¥çľĭ": 6201,
      "å¤įåı¤": 6202,
      "æ·±æ·±": 6203,
      "çĽ´å¾Ħ": 6204,
      "å®ļä½į": 6205,
      "å¤±è´¥": 6206,
      "å¸®æĪĳçĶŁæĪĲ": 6207,
      "æĥĳ": 6208,
      "æ±º": 6209,
      "å¥¥æĸ¯": 6210,
      "ĠåĩĨå¤ĩ": 6211,
      "èĢĮä¸į": 6212,
      "æĹłå°½": 6213,
      "æĸĩæľ¬åĨħå®¹": 6214,
      "èĪĴéĢĤçļĦ": 6215,
      "åı¯ä¹Ĳ": 6216,
      "ä»ĸè¦ģ": 6217,
      "ä»ĩ": 6218,
      "èģĶçĽŁ": 6219,
      "çļĦåĳ³éģĵ": 6220,
      "æ¸ħæ¥ļ": 6221,
      "å±Ĥæ¬¡": 6222,
      "æĪĳå·²ç»ı": 6223,
      "ç½²": 6224,
      "æ¶¯": 6225,
      "æľīä¸Ģå¤©": 6226,
      "Ġday": 6227,
      "å°ıæĺİä¹°äºĨ": 6228,
      "è¿Ļåı¥": 6229,
      "æ°Ľ": 6230,
      "å¹¶ä¸º": 6231,
      "éŁ©çīĪ": 6232,
      "ä½łåľ¨": 6233,
      "ans": 6234,
      "æĸĩæľ¬è¿Ľè¡ĮçºłéĶĻ": 6235,
      "å¤Ħäºİ": 6236,
      "æĶ¶åĪ°": 6237,
      "ç§ĺå¯Ĩ": 6238,
      "ä¼¤å®³": 6239,
      "éģĹäº§": 6240,
      "è¶³å¤ŁçļĦ": 6241,
      "å°ıåĿĹ": 6242,
      "è°ĥæĸĻ": 6243,
      "é¢ĺçĽ®ä¸Ń": 6244,
      "éªĹ": 6245,
      "çļĦä¸į": 6246,
      "å¾Īå¿«": 6247,
      "åħĪè¿Ľ": 6248,
      "çļĦç¬Ķ": 6249,
      "çļĦç¼ĸç¨ĭ": 6250,
      "æĪĺæĸĹ": 6251,
      "å¸ĿåĽ½": 6252,
      "å¤º": 6253,
      "å®´": 6254,
      "æĪĳä¹Ł": 6255,
      "é¥±": 6256,
      "æ¢¯": 6257,
      "è¿ľå¤Ħ": 6258,
      "éĿ©åĳ½": 6259,
      "é¬¼": 6260,
      "ä¼ļæľī": 6261,
      "å½ĵåľ°çļĦ": 6262,
      "çĽĳçĿ£": 6263,
      "çļĨ": 6264,
      "çļĦæ¡": 6265,
      "æĦıè¯ĨåĪ°": 6266,
      "æĢ»äººæķ°": 6267,
      "ç®Ģæ´ģæĺİäºĨ": 6268,
      "çļĦçĥ¤": 6269,
      "æĩĴçĭĹ": 6270,
      "Ġro": 6271,
      "çĩ¥": 6272,
      "çļĦæ¤į": 6273,
      "Ġet": 6274,
      "åĲįåı«": 6275,
      "âĢĿï¼ĮâĢľ": 6276,
      "ific": 6277,
      "åĨ²çªģ": 6278,
      "å¹½é»ĺ": 6279,
      "æĪĳå¸ĮæľĽ": 6280,
      "æĿľ": 6281,
      "åĬŀåħ¬å®¤": 6282,
      "cri": 6283,
      "Ġsome": 6284,
      "ä¸ĸçķĮæĿ¯": 6285,
      "åıĳè¡¨": 6286,
      "åħ¶ä¸Ńä¸Ģä¸ª": 6287,
      "æľºåĻ¨ç¿»è¯ĳ": 6288,
      "å¤±æľĽ": 6289,
      "çĶŁåĳ½çļĦ": 6290,
      "ç»Ļå®ļä¸¤ä¸ª": 6291,
      "çļĦçĽ®æłĩ": 6292,
      "å¹¶ä½¿çĶ¨": 6293,
      "éħ·": 6294,
      "é¦Ļæ°Ķ": 6295,
      "èįīåİŁ": 6296,
      "å§Ĩæĸ¯": 6297,
      "æľĢéĩįè¦ģ": 6298,
      "çªģåĩº": 6299,
      "åĴĮä»ĸçļĦ": 6300,
      "åĬĽäºİ": 6301,
      "éĻ¤æŃ¤": 6302,
      "ä¼Ĺå¤ļ": 6303,
      "ä»ĸæĥ³æĬĬ": 6304,
      ")ï¼Į": 6305,
      "åĩĮ": 6306,
      "æĺĵäºİçĲĨè§£": 6307,
      "æĪĳæŃ£åľ¨": 6308,
      "æ°ĽåĽ´": 6309,
      "Ġwill": 6310,
      "è¯ķè¯ķ": 6311,
      "åĪļåĪļ": 6312,
      "ä¿¡ä»°": 6313,
      "éľĢè¦ģè¿Ľè¡Į": 6314,
      "ç»ıçĲĨ": 6315,
      "æľ¯è¯Ń": 6316,
      "éĻªä¼´": 6317,
      "æ°£": 6318,
      "æĺİæ²»": 6319,
      "æ¶ĪèĢĹ": 6320,
      "åĪĳ": 6321,
      "åĩºèī²çļĦ": 6322,
      "è¿½éĢĲ": 6323,
      "çļĦå¹³åĿĩ": 6324,
      "åĴĮé«ĺ": 6325,
      "çŃīåĽłç´ł": 6326,
      "æķ´çĲĨ": 6327,
      "è¿ĲåĬ¨åĳĺ": 6328,
      "çī¹åĪ«æĺ¯": 6329,
      "å«©": 6330,
      "å¯Ħ": 6331,
      "æĽ´å¥½åľ°çĲĨè§£": 6332,
      "ä½łæĺ¯": 6333,
      "è¯·ç»Ļåĩº": 6334,
      "å½ĵä»Ĭ": 6335,
      "è§£åĨ³è¿Ļä¸ªéĹ®é¢ĺ": 6336,
      "æĭĸ": 6337,
      "ä¹Ĳè¶£": 6338,
      "åĲĮäºĭ": 6339,
      "å¾Īæ£Ĵ": 6340,
      "çļĦçģµ": 6341,
      "éĻ¤æŃ¤ä¹ĭå¤ĸ": 6342,
      "lish": 6343,
      "àª": 6344,
      "è·Į": 6345,
      "åĴĮåĪĨæŀĲ": 6346,
      "æĸ°äº§åĵģ": 6347,
      "ä¹ŁéĿŀå¸¸": 6348,
      "è¿Ļä¸ªè¯į": 6349,
      "å½ĵæĪĳä»¬": 6350,
      "åİŁåĪĻ": 6351,
      "åĳ¨æľŁ": 6352,
      "åłµ": 6353,
      "æ¶Į": 6354,
      "å¾¡": 6355,
      "æĿİçĻ½": 6356,
      "çĻ¾æĲŃ": 6357,
      "åĪĽéĢłä¸Ģä¸ª": 6358,
      "çļĦå¤§å°ı": 6359,
      "ram": 6360,
      "å¯º": 6361,
      "æīĭå·¥": 6362,
      "å£¶": 6363,
      "åİĨåı²ä¸Ĭ": 6364,
      "æī©å±ķ": 6365,
      "400": 6366,
      "çļĦä»»åĬ¡": 6367,
      "æ±īåł¡": 6368,
      "åŁ¹è®Ń": 6369,
      "çļĦé¤Ĳåİħ": 6370,
      "åĮĨ": 6371,
      "è°¨": 6372,
      "å¾Īå¤§": 6373,
      "æ©Ļèī²": 6374,
      "XXX": 6375,
      "Ġall": 6376,
      "Ð»": 6377,
      "çļĦä½ľçĶ¨": 6378,
      "å°ıåŀĭ": 6379,
      "åħ½": 6380,
      "ç©ºä¸Ń": 6381,
      "æ²³æµģ": 6382,
      "Ġeat": 6383,
      "éĿĴæĺ¥": 6384,
      "çļĦæ©Ļ": 6385,
      "å¤·": 6386,
      "ä¸įå°ĳ": 6387,
      "æ¯Ķå°ıçº¢": 6388,
      "ä¸ºä¸»é¢ĺ": 6389,
      "éĹ»åĲį": 6390,
      "æŁĶåĴĮ": 6391,
      "çľŁæŃ£çļĦ": 6392,
      "å¼¯": 6393,
      "éļĨ": 6394,
      "ä¸ŃçļĦåħ³éĶ®è¯į": 6395,
      "Ġsum": 6396,
      "çļĦæĬĢå·§": 6397,
      "è®¢åįķ": 6398,
      "çĴ°": 6399,
      "çĲĨçĶ±": 6400,
      "æľīä¸¤ä¸ª": 6401,
      "å¥ĳ": 6402,
      "å¥½æľĭåıĭ": 6403,
      "ç´§æĢ¥": 6404,
      "ä¸ĢçĽ´åľ¨": 6405,
      "åı¤è¯Ĺç»ŃåĨĻ": 6406,
      "çļĦçĬ¶æĢģ": 6407,
      "æĮ¯": 6408,
      "åı¯ä»¥çĶ¨æĿ¥": 6409,
      "éĻĮçĶŁ": 6410,
      "Ġå¦Ĥæŀľ": 6411,
      "è¿ĻäºĽä¿¡æģ¯": 6412,
      "åĲİçļĦåı¥åŃĲ": 6413,
      "ç½ļ": 6414,
      "çŁ³å¤´": 6415,
      "æ±īè¯Ń": 6416,
      "ä¸ªçĲĥ": 6417,
      "éĢĤçĶ¨äºİ": 6418,
      "çĽ¸åħ³ä¿¡æģ¯": 6419,
      "èªīä¸º": 6420,
      "åĸĦèī¯": 6421,
      "å°ıæĺİæīĭéĩĮæľī": 6422,
      "ãĢĳ": 6423,
      "çĽ¾": 6424,
      "æ¬º": 6425,
      "æİ¥è§¦": 6426,
      "çº¿æĢ§": 6427,
      "å»ºçŃĳçī©": 6428,
      "å°Ĭæķ¬çļĦ": 6429,
      "èŁ": 6430,
      "ãĢĲ": 6431,
      "è¿Ļä¸¤": 6432,
      "æıĲåīį": 6433,
      "èĪªç©º": 6434,
      "çİīç±³": 6435,
      "çĸĳéĹ®åı¥": 6436,
      "Ġ200": 6437,
      "ç¥ĸ": 6438,
      "åİŁæľ¬": 6439,
      "éĢļå¸¸ä¼ļ": 6440,
      "mer": 6441,
      "àº": 6442,
      "éĢĿ": 6443,
      "æ¯ıåĳ¨": 6444,
      "åģļäºĨ": 6445,
      "éļľç¢į": 6446,
      "é£İåħī": 6447,
      "æĿ¯åŃĲ": 6448,
      "old": 6449,
      "é¢ľèī²çļĦ": 6450,
      "ug": 6451,
      "ä¸Ľ": 6452,
      "åľ¨éĤ£éĩĮ": 6453,
      "ä¸īæĺİæ²»": 6454,
      "èĭ±å¯¸": 6455,
      "çļĦèĩªçĦ¶": 6456,
      "ä½ĵç³»": 6457,
      "èħĬ": 6458,
      "à¤¾": 6459,
      "çĽĸèĮ¨": 6460,
      "åħ¶å®ŀ": 6461,
      "å¤ĩçĶ¨": 6462,
      "Ġ<": 6463,
      "çļĦä»£è¡¨": 6464,
      "åıĻ": 6465,
      "å¿į": 6466,
      "çľĭçĿĢ": 6467,
      "æº¶": 6468,
      "çħ®çĨŁ": 6469,
      "è¿Ļä¹Ī": 6470,
      "èĢĮæĪĲ": 6471,
      "èıł": 6472,
      "åĪĨåĪ«ä¸º": 6473,
      "çļĦçľĭ": 6474,
      "çļĦæ¦Ĥçİĩ": 6475,
      "å¥½å¤Ħ": 6476,
      "æ¯ıä¸ªäººéĥ½": 6477,
      "èı²å°Ķ": 6478,
      "çıĤçıĤ": 6479,
      "çİ°åľº": 6480,
      "ç¡®å®ŀ": 6481,
      "æĮĩå®ļçļĦ": 6482,
      "ç¥ŀå¥ĩ": 6483,
      "ä¼ģé¹ħ": 6484,
      "çĩĥæĸĻ": 6485,
      "çļĦåľºæĻ¯": 6486,
      "æķ°çĻ¾": 6487,
      "ä¸įå¥½": 6488,
      "æĸĩæľ¬çºłéĶĻ": 6489,
      "æł¹æį®èĩªå·±çļĦ": 6490,
      "ä»İä¸Ń": 6491,
      "ç«Ł": 6492,
      "æĪĸæĺ¯": 6493,
      "è®°å¾Ĺ": 6494,
      "ä¹Łèĥ½": 6495,
      "ç®ĢåİĨ": 6496,
      "è¡Ĺéģĵ": 6497,
      "éĽ¶é£Ł": 6498,
      "ek": 6499,
      "çļĦå¤ĸ": 6500,
      "è¡°": 6501,
      "éĤ£ä½łèĥ½": 6502,
      "ç¼Ģ": 6503,
      "åĴĮä¸į": 6504,
      "è¯¦ç»ĨçļĦ": 6505,
      "å¤ļå½©": 6506,
      "å½¢æĢģ": 6507,
      "å¸®åĬ©æĤ¨": 6508,
      "æĸĩç«łçļĦ": 6509,
      "æµ·é²ľ": 6510,
      "ĠTh": 6511,
      "izza": 6512,
      "è½¨éģĵ": 6513,
      "ç»Ļå°ıçº¢": 6514,
      "èī°": 6515,
      "äº¿ç¾İåħĥ": 6516,
      "éģµå¾ª": 6517,
      "Ġel": 6518,
      "éĤ£åıª": 6519,
      "åĳ½ä»¤": 6520,
      "çļĦç¤¼": 6521,
      "çļĦçģ«": 6522,
      "å«Į": 6523,
      "éĹ¹": 6524,
      "èĲ½åı¶": 6525,
      "å¦ĤåĲĮ": 6526,
      "ç¬¬ä¸Ģæ¬¡": 6527,
      "ãĢĤâĢĿ\\": 6528,
      "æĪĳä»¬çļĦçĶŁæ´»": 6529,
      "Ġtoday": 6530,
      "çļĦä¸»æĹ¨": 6531,
      "AB": 6532,
      "éĹ°": 6533,
      "åįĥç±³": 6534,
      "åķıé¡Į": 6535,
      "è½´": 6536,
      "åıĹä¼¤": 6537,
      "æĢİä¹ĪåĬŀ": 6538,
      "æµ·å¹³éĿ¢ä¸Ĭåįĩ": 6539,
      "ance": 6540,
      "çīĽä»Ķè£¤": 6541,
      "ä»¥æıĲé«ĺ": 6542,
      "Ġcont": 6543,
      "ä»¥åħ¶": 6544,
      "æĦıè§ģ": 6545,
      "æĺİçĻ½äºĨ": 6546,
      "åĬłèµ·æĿ¥": 6547,
      "åģļå¥½": 6548,
      "Google": 6549,
      "ç®Ń": 6550,
      "èħ¹": 6551,
      "Ġvery": 6552,
      "åĮĸç®Ģ": 6553,
      "itt": 6554,
      "ç¢ĳ": 6555,
      "åĩĨç¡®æĢ§": 6556,
      "çĶ³è¯·": 6557,
      "è¦ģæ³¨æĦı": 6558,
      "æĭĨ": 6559,
      "åı£è¯Ń": 6560,
      "å·²ç»ıæĪĲä¸º": 6561,
      "éĢıæĺİ": 6562,
      "Ġçĥ¤": 6563,
      "é¢¨": 6564,
      "çĵ·": 6565,
      "å±ŀæĢ§": 6566,
      "åĤ³": 6567,
      "fer": 6568,
      "çĦ¡": 6569,
      "æŁ³": 6570,
      "ise": 6571,
      "Ġbook": 6572,
      "Wh": 6573,
      "éģĭ": 6574,
      "Ġtext": 6575,
      "äº¤éĢļå·¥åħ·": 6576,
      "çļĦè¿ĩç¨ĭä¸Ń": 6577,
      "åľ°éĵģ": 6578,
      "åĴĮåºĶçĶ¨": 6579,
      "æ¸´": 6580,
      "æĺ¯ä¸Ģå®¶": 6581,
      "æľŁæľĽ": 6582,
      "ER": 6583,
      "çļĦæĲ": 6584,
      "å°Ĩä¸ĭåĪĹ": 6585,
      "æħİ": 6586,
      "ç¾İåĽ½æĢ»ç»Ł": 6587,
      "ä¹Ķæ²»": 6588,
      "çļĦåĴĸåķ¡": 6589,
      "èº«ä¸Ĭ": 6590,
      "ç¶²": 6591,
      "éģĹä¼ł": 6592,
      "çļĦç¡": 6593,
      "åĩłå¹´": 6594,
      "result": 6595,
      "85": 6596,
      "æĸ°éĹ»æłĩé¢ĺ": 6597,
      "çļĦæĶ¹": 6598,
      "Ġ17": 6599,
      "æķ°æį®åĪĨæŀĲ": 6600,
      "æĹłè®ºæĺ¯": 6601,
      "å¼·": 6602,
      "èĥĨ": 6603,
      "åıĳçİ°äºĨ": 6604,
      "å¯¹æĸĩæľ¬éĶĻè¯¯": 6605,
      "å¯¹æĸĩæľ¬éĶĻè¯¯è¿Ľè¡Į": 6606,
      "æĺ¯æĪĳä»¬": 6607,
      "åľ°ä½į": 6608,
      "åħ¬æĸ¤": 6609,
      "å¿łè¯ļ": 6610,
      "çļĦéĵħç¬Ķ": 6611,
      "å°Ĩè¿ĻäºĽ": 6612,
      "éĵģå¡Ķ": 6613,
      "æĬĺæī£": 6614,
      "æŃ£ä¼ł": 6615,
      "çļĦæĭ¼åĨĻ": 6616,
      "åı¯ä»¥å¾Ĺåĩº": 6617,
      "æĮĩç¤º": 6618,
      "åĳ½è¿Ĳ": 6619,
      "ĠPro": 6620,
      "Ġì": 6621,
      "çĪ¶æ¯į": 6622,
      "ä¸ªæķ°": 6623,
      "å»ºéĢł": 6624,
      "èĳ¡èĲĦéħĴ": 6625,
      "åľ¨è¿Ļç§į": 6626,
      "cl": 6627,
      "ĠåĬłåħ¥": 6628,
      "å¹´çº§": 6629,
      "æģ¨": 6630,
      "Ġout": 6631,
      "æľ¬å°ıè¯´": 6632,
      "åĲ´": 6633,
      "è¿ĩæ»¤": 6634,
      "éĶ¦": 6635,
      "å¯¹ç»Ļå®ļçļĦ": 6636,
      "ç¿¼": 6637,
      "å±Ĭ": 6638,
      "rain": 6639,
      "ä¸ĭåĳ¨": 6640,
      "ä½Ĩå®ĥ": 6641,
      "éľĢè¦ģæĶ¯ä»ĺ": 6642,
      "åĲĪæ³ķ": 6643,
      "äººç±»æ´»åĬ¨": 6644,
      "ä¸Ģç¯ĩåħ³äºİ": 6645,
      "å¿ĥçĲĨåģ¥åº·": 6646,
      "æ·Ģ": 6647,
      "å®¢åİħ": 6648,
      "çļĦäººçī©": 6649,
      "é¥®åĵģ": 6650,
      "æĪĲåĬŁåľ°": 6651,
      "æĦŁæ¿Ģ": 6652,
      "èĥ½åĬĽåĴĮ": 6653,
      "åľ¨åħ¬åĽŃéĩĮ": 6654,
      "æĶĢ": 6655,
      "çĲĨæĥ³": 6656,
      "åĽ¾çīĩ": 6657,
      "æĪĳè§īå¾Ĺ": 6658,
      "æĤ¨å¥½": 6659,
      "çļĦæĦıå¤§åĪ©": 6660,
      "æīĢéľĢçļĦ": 6661,
      "æľīæĦıä¹ī": 6662,
      "ç²¾ç¡®": 6663,
      "æ¯ıä¸ªæľĭåıĭåĪĨåĪ°": 6664,
      "çļĦçĭ¬": 6665,
      "è´·": 6666,
      "æĽ°": 6667,
      "èªª": 6668,
      "åı¦ä¸Ģç§į": 6669,
      "å¸®æĤ¨": 6670,
      "è¿ŀç»Ń": 6671,
      "çĥĺ": 6672,
      "è¢«èªīä¸º": 6673,
      "çº¢éħĴ": 6674,
      "å§ĭç»Ī": 6675,
      "çĭĹçļĦ": 6676,
      "å®ĹæķĻ": 6677,
      "ï¼Į\"": 6678,
      "æĿ¥çļĦ": 6679,
      "èµ«": 6680,
      "ä¹ŁéľĢè¦ģ": 6681,
      "çļĦæİ¢": 6682,
      "é«ĺæ¸©": 6683,
      "æ¯ıä¸Ģ": 6684,
      "äºĨå¤ļå°ĳ": 6685,
      "éĩĳé»Ħèī²": 6686,
      "æ¹¾": 6687,
      "éĵ¶æ²³": 6688,
      "å¸®æĪĳçĶŁæĪĲåķĨåĵģæĸĩæ¡Ī": 6689,
      "å¸®æĪĳçĶŁæĪĲåķĨåĵģæĸĩæ¡Īè¾ĵåħ¥": 6690,
      "æĺ¯éĢļè¿ĩ": 6691,
      "æľīä»»ä½ķ": 6692,
      "è¾ī": 6693,
      "æ°Ķè±¡": 6694,
      "æľ±": 6695,
      "åĲĲ": 6696,
      "æĺ¯ä¸ĸçķĮä¸ĬæľĢ": 6697,
      "ä¸įå¤Ł": 6698,
      "Ġone": 6699,
      "çļĦç©ºæ°Ķ": 6700,
      "âĢĺ": 6701,
      "åıĳéĢģ": 6702,
      "èĥĥ": 6703,
      "èĥİ": 6704,
      "ç½Ĺæĸ¯": 6705,
      "ä¸įåıĺ": 6706,
      "åĩºçİ°åľ¨": 6707,
      "çĶ·äºº": 6708,
      "84": 6709,
      "åºĻ": 6710,
      "å½ĵæĪĳ": 6711,
      "åĽŀçŃĶä»¥ä¸ĭéĹ®é¢ĺ": 6712,
      "é»Ħæ²¹": 6713,
      "é¹°": 6714,
      "è¿Ļé¦ĸæŃĮ": 6715,
      "io": 6716,
      "æĶ¯åĩº": 6717,
      "è¿ĳæľŁ": 6718,
      "æī©å¤§": 6719,
      "åħģè®¸": 6720,
      "å®¹éĩı": 6721,
      "æ¿ĢçĥĪ": 6722,
      "èĻļæĭŁçİ°å®ŀ": 6723,
      "å®ĭ": 6724,
      "å¼¥": 6725,
      "æ¸ħæ´Ĺ": 6726,
      "åħįè´¹": 6727,
      "æĺ¯ä»Ģä¹ĪæĦıæĢĿ": 6728,
      "åħ¼": 6729,
      "ä¸Ģå®ļçļĦ": 6730,
      "åĪĨæĶ¯": 6731,
      "æĮĩæłĩ": 6732,
      "ä»Ĭå¤©çļĦå¤©æ°Ķ": 6733,
      "èµĦéĩĳ": 6734,
      "é²¨": 6735,
      "çģµæĦŁ": 6736,
      "æĺı": 6737,
      "è¯Ńä¹ī": 6738,
      "é«ĺè´¨éĩı": 6739,
      "å¼ºåº¦": 6740,
      "èĩ´åĬĽäºİ": 6741,
      "è´¦æĪ·": 6742,
      "æĺ¯ä¸Ģæ¬¾": 6743,
      "ä¸¤ä¸ªäºº": 6744,
      "è¯·éĹ®æĤ¨": 6745,
      "å¡«åĨĻ": 6746,
      "ux": 6747,
      "è±¹": 6748,
      "é»ĳèĥ¡æ¤Ĵ": 6749,
      "è·³è·ĥ": 6750,
      "çļĦæĻ¯èī²": 6751,
      "ıè§Ī": 6752,
      "ink": 6753,
      "åįĩé«ĺ": 6754,
      "æĪĳå»ºè®®": 6755,
      "æĪĳä»¬è¦ģ": 6756,
      "ä¼łè¾ĵ": 6757,
      "ä¸ĸçķĮä¸Ĭ": 6758,
      "éĺĲè¿°": 6759,
      "ä¸ªåŃĹ": 6760,
      "åı¯ä»¥çĶ¨äºİ": 6761,
      "çĶ¨æĪ·çļĦ": 6762,
      "æĿİåįİ": 6763,
      "ä»Ķç»Ĩ": 6764,
      "æľĢé«ĺçļĦ": 6765,
      "æĺŁéĻħ": 6766,
      "ä¿®é¥°": 6767,
      "éĢļçŁ¥": 6768,
      "å¯¹äºİç»Ļå®ļçļĦ": 6769,
      "ä¸ĬåŃ¦": 6770,
      "æĦıå¤ĸ": 6771,
      "èĬ¯": 6772,
      "èµ·äºĨ": 6773,
      "é¢ĦçĥŃ": 6774,
      "æ¨¡åŀĭçļĦ": 6775,
      "è¯·éĹ®ä»ĸ": 6776,
      "æĸĩèīº": 6777,
      "çĶµåĻ¨": 6778,
      "çĶŁæĪĲä¸Ģä¸ªåħ³äºİ": 6779,
      "çĽ¸åĲĮçļĦ": 6780,
      "è¿Ļé¦ĸè¯Ĺ": 6781,
      "br": 6782,
      "åĪĨè§£": 6783,
      "æįī": 6784,
      "çĸı": 6785,
      "ç«ĭåį³": 6786,
      "åĮ»çĸĹé¢ĨåŁŁ": 6787,
      "æĺ¨æĻļ": 6788,
      "ä½Ĩåľ¨": 6789,
      "ä¸ĸçķĮçļĦ": 6790,
      "åĲ¦å®ļ": 6791,
      "æĬ½åıĸ": 6792,
      "æĪĳè¿ĺ": 6793,
      "éĶĻè¿ĩ": 6794,
      "æĿ¥äºĨ": 6795,
      "ä¼¦çĲĨ": 6796,
      "),": 6797,
      "Ġä¸ªç³ĸæŀľ": 6798,
      "æĥ°": 6799,
      "è¡¨è¿°": 6800,
      "ä¸»é¢ĺæĺ¯": 6801,
      "å±ħä½ı": 6802,
      "vers": 6803,
      "å°ıæĺİå®¶æľī": 6804,
      "åıī": 6805,
      "å¦ĤæŀľæĤ¨éľĢè¦ģ": 6806,
      "ĠJohn": 6807,
      "çļĦåĲĮæĹ¶": 6808,
      "å½»": 6809,
      "---": 6810,
      "æ²¸": 6811,
      "Ġcl": 6812,
      "å®ĮåĸĦ": 6813,
      "æ¸Ĳæ¸Ĳ": 6814,
      "å®¶çĶ¨": 6815,
      "å¦Ĥä½ķä½¿çĶ¨": 6816,
      "è¾ĥä¸º": 6817,
      "åı°çģ£": 6818,
      "åĬ¨æĢģ": 6819,
      "åĻª": 6820,
      "è¾ĥé«ĺ": 6821,
      "èĤĮèĤ¤": 6822,
      ")-": 6823,
      "ä»¥åĲİ": 6824,
      "æľīæīĢä¸įåĲĮ": 6825,
      "æĺĨèĻ«": 6826,
      "çļĦæ¤įçī©": 6827,
      "å¤ļäºĳ": 6828,
      "è¶ĬæĿ¥è¶Ĭå¤ļ": 6829,
      "éĺ¿çĶĺæŃ£ä¼ł": 6830,
      "å¤ł": 6831,
      "ï¼Ł\\": 6832,
      "éĺŁä¼į": 6833,
      "æĸĩæľ¬ä¸ŃçļĦåħ³éĶ®è¯į": 6834,
      "çĩĥçĥ§": 6835,
      "ä¼ĺç§ĢçļĦ": 6836,
      "ä¹ĭæĥħ": 6837,
      "ç±»ä¼¼äºİ": 6838,
      "éĵĥ": 6839,
      "åģļæ³ķ": 6840,
      "è¡¥åħħ": 6841,
      "å°ıæķ°": 6842,
      "çº¿æĿ¡": 6843,
      "å¯ĮåĲ«": 6844,
      "æĲľç´¢å¼ķæĵİ": 6845,
      "æĸ°åĨł": 6846,
      "åĲİçļĦæĸĩæľ¬": 6847,
      "å°½å¿«": 6848,
      "éĺ²æĻĴ": 6849,
      "æľīå¤ļ": 6850,
      "æ°Ķæģ¯": 6851,
      "æĸĩç«łåĨħå®¹": 6852,
      "æ½º": 6853,
      "ix": 6854,
      "ife": 6855,
      "æĢ»åĴĮ": 6856,
      "èĻ¹": 6857,
      "æıŃç¤º": 6858,
      "les": 6859,
      "çĶŁæľº": 6860,
      "çļĦçĤ": 6861,
      "æ¬¾å¼ı": 6862,
      "ĠAI": 6863,
      "ç»¼ä¸Ĭ": 6864,
      "è¿Ļä»¶": 6865,
      "åħ¨çĲĥèĮĥåĽ´åĨħ": 6866,
      "æ¡Ĩæŀ¶": 6867,
      "ĠChinese": 6868,
      "ç»Ŀå¯¹": 6869,
      "ĊĠĠĠ": 6870,
      "è¡ĮçļĦ": 6871,
      "èĭ±æĸĩåįķè¯į": 6872,
      "éĨĩ": 6873,
      "ä¸ĭéĿ¢çļĦåı¥åŃĲ": 6874,
      "æĪĳä¸ºæĤ¨": 6875,
      "ä½łæĥ³": 6876,
      "èµµ": 6877,
      "å¥½åĥı": 6878,
      "å®¶çļĦ": 6879,
      "ree": 6880,
      "æ±Ĺ": 6881,
      "éĹ®é¢ĺåĴĮ": 6882,
      "å°±èĥ½": 6883,
      "ãĢĭ-": 6884,
      "ä¹ĺåĿĲ": 6885,
      "ven": 6886,
      "æľ¬è´¨": 6887,
      "å¯¹æ¯Ķ": 6888,
      "æ²Ļæ¼ł": 6889,
      "æĭħä»»": 6890,
      "è§Ģ": 6891,
      "æº¢": 6892,
      "Ġstr": 6893,
      "éħ¸å¥¶": 6894,
      "çµĲ": 6895,
      "çļĦéĩįéĩı": 6896,
      "å¹³éĿĻ": 6897,
      "ä¸»èıľ": 6898,
      "è¢Ń": 6899,
      "éĥİ": 6900,
      "è®©å®ĥ": 6901,
      "å¼Ģå§ĭæľī": 6902,
      "åİĭåĬĽåĴĮ": 6903,
      "ä¸įä»ħä»ħ": 6904,
      "çļĦè¯Ŀé¢ĺ": 6905,
      "æĺ¯åĵª": 6906,
      "é¦Ļèįī": 6907,
      "èŃ°": 6908,
      "çļĦçľĭæ³ķ": 6909,
      "çŃĽéĢī": 6910,
      "Ġapp": 6911,
      "éķ¿æĸ¹": 6912,
      "çļĦçĶŁæ´»æĸ¹å¼ı": 6913,
      "æĴ°åĨĻ": 6914,
      "ä¹Łåľ¨": 6915,
      "å¤©ä½ĵ": 6916,
      "éģ®": 6917,
      "åĿĹå·§åħĭåĬĽ": 6918,
      "éĢīé¡¹ä¸ŃéĢīæĭ©": 6919,
      "åĴĮå®īåħ¨": 6920,
      "å®ĥä»¬åľ¨": 6921,
      "äºĮåįģ": 6922,
      "å¹¶çĶ¨": 6923,
      "èĥ½å¤Łåľ¨": 6924,
      "ä¸Ģè¾Ĩ": 6925,
      "å°ıç»Ħ": 6926,
      "çĽ¸éģĩ": 6927,
      "nglish": 6928,
      "å¾Īéļ¾": 6929,
      "çĸ¼": 6930,
      "æĻ¯èī²": 6931,
      "åĲ¦åĪĻ": 6932,
      "ç³»ç»ŁçļĦ": 6933,
      "æĬ½åıĸåĩº": 6934,
      "æĮº": 6935,
      "æķ°æį®åĴĮ": 6936,
      "Ġper": 6937,
      "æĹ¥å¸¸çĶŁæ´»": 6938,
      "æŀ¯": 6939,
      "è¿Ĳè¾ĵ": 6940,
      "ä¼Łå¤§çļĦ": 6941,
      "éĹ®çŃĶ": 6942,
      "ä¸įéĶĻçļĦéĢīæĭ©": 6943,
      "æįŁå¤±": 6944,
      "ç¸": 6945,
      "æĪĲçĨŁ": 6946,
      "åĴĮæĶ¯æĮģ": 6947,
      "é©¬æĭī": 6948,
      "æĤ¬çĸĳ": 6949,
      "ç²Ĺ": 6950,
      "éĿĴå¹´": 6951,
      "åįĪé¤Ĳ": 6952,
      "ä¼ļå¯¼èĩ´": 6953,
      "Ġart": 6954,
      "åŃ£åº¦": 6955,
      "è§£éĩĬä»Ģä¹Īæĺ¯": 6956,
      "æŃ§": 6957,
      "æĪĳä»¬åı¯ä»¥éĢļè¿ĩ": 6958,
      "çļĦæ²»": 6959,
      "pon": 6960,
      "æĺ¯ä¸į": 6961,
      "æŃ¤æĹ¶": 6962,
      "å¿ĥæĢģ": 6963,
      "ress": 6964,
      "èĲ§": 6965,
      "æ¬¢ä¹Ĳ": 6966,
      "çĶ¨æĪ·è¾ĵåħ¥": 6967,
      "æ²īæµ¸": 6968,
      "çļĦæµ·æ»©": 6969,
      "\"\"": 6970,
      "ĠæľĢåĲİ": 6971,
      "37": 6972,
      "éĶĻåĪ«": 6973,
      "å¤ĩåıĹ": 6974,
      "åı¯è¯»": 6975,
      "æĢ»ä½ĵ": 6976,
      "éĶĻåĪ«åŃĹ": 6977,
      "çĹħäºº": 6978,
      "æłĸæģ¯": 6979,
      "æ²¡æľīä»»ä½ķ": 6980,
      "éĿ¢è¯ķ": 6981,
      "ç³Ł": 6982,
      "éĿŀæ³ķ": 6983,
      "ç»Ļå®ļä¸Ģç¯ĩæĸĩç«ł": 6984,
      "ID": 6985,
      "ä¸Ģåº§": 6986,
      "æł¹æį®é¢ĺæĦı": 6987,
      "å¸¶": 6988,
      "è³ª": 6989,
      "çĽ¸äºĴä½ľçĶ¨": 6990,
      "ĠX": 6991,
      "åİ¦": 6992,
      "çļĦæ¯ĶèµĽ": 6993,
      "æ·±åĪ»çļĦ": 6994,
      "å¤ļæ¬¡": 6995,
      "åĦ¿åŃĲ": 6996,
      "æ³ķè§Ħ": 6997,
      "åħ¬äº¤": 6998,
      "èĤĿ": 6999,
      "è¯¥çĶµå½±": 7000,
      "æļĳ": 7001,
      "ä¸ĸçķĮåĲĦåľ°": 7002,
      "å¹ħçĶ»": 7003,
      "æľºæ¢°": 7004,
      "èĻķ": 7005,
      "æĤŁ": 7006,
      "åı¶åŃĲ": 7007,
      "æĽ¿ä»£": 7008,
      "ä¾¿æį·": 7009,
      "æĴŃæĶ¾": 7010,
      "çĶµè¯Ŀåı·çłģ": 7011,
      "å®ı": 7012,
      "çĭ±": 7013,
      "æĤ¨åı¯ä»¥åľ¨": 7014,
      "è¿Ļä¸ªæķħäºĭ": 7015,
      "å®ĿèĹı": 7016,
      "ç¬Ķè®°æľ¬": 7017,
      "åįĢ": 7018,
      "éŁ§": 7019,
      "åĲ«éĩı": 7020,
      "æĸĩåŃ¦ä½ľåĵģ": 7021,
      "èŃ¦æĸ¹": 7022,
      "åı¯ä»¥å°Ŀè¯ķ": 7023,
      "åĬ¨çĶ»": 7024,
      "æĪĳåİ»": 7025,
      "æĪĸçŁŃè¯Ń": 7026,
      "éĢłåŀĭ": 7027,
      "çļĦäººæķ°": 7028,
      "çļĦæĳĦ": 7029,
      "çĢ": 7030,
      "èĭį": 7031,
      "æ²Ļæ»©ä¸Ĭ": 7032,
      "çļĦä¾ĭåŃĲ": 7033,
      "å¦®": 7034,
      "çŃīæĸ¹éĿ¢çļĦ": 7035,
      "çĤ¹åĩ»": 7036,
      "åĪĿåŃ¦èĢħ": 7037,
      "çĪ¸çĪ¸": 7038,
      "æ¯ĶèĲ¨": 7039,
      "ory": 7040,
      "åĩłåıª": 7041,
      "ily": 7042,
      "æľĢå¤§åĢ¼": 7043,
      "ä¸Ńä½įæķ°": 7044,
      "åķ¦": 7045,
      "å¤ªæ£Ĵ": 7046,
      "form": 7047,
      "çļĦåĴĮ": 7048,
      "æŁ±": 7049,
      "æĵħ": 7050,
      "å®³æĢķ": 7051,
      "ç»ĺçĶ»": 7052,
      "Je": 7053,
      "Ġwork": 7054,
      "æ¯ķä¸ļ": 7055,
      "è¿ģ": 7056,
      "èĥĸ": 7057,
      "ä¸¤ä¸ªæľĭåıĭ": 7058,
      "åĽ´ç»ķ": 7059,
      "æĢİä¹Īåģļ": 7060,
      "æĬķåħ¥": 7061,
      "æĶ¾æĿ¾èº«å¿ĥ": 7062,
      "æĶ¿æ²»": 7063,
      "Ġlear": 7064,
      "è¿ĩäºİ": 7065,
      "æĩĴæĥ°": 7066,
      "çļĦèĭ¹æŀľæķ°": 7067,
      "çīµ": 7068,
      "å¤§æµ·": 7069,
      "æķĻåŃ¦": 7070,
      "æľīä¸Ģåıª": 7071,
      "èµĦäº§": 7072,
      "åģ¥èº«æĪ¿": 7073,
      "å¤ªæ£ĴäºĨ": 7074,
      "æĹħæ¸¸çĽ®çļĦåľ°": 7075,
      "xx": 7076,
      "æĦŁçŁ¥": 7077,
      "å¾Īå¤§çļĦ": 7078,
      "æłĩæ³¨": 7079,
      "æ·±å¤Ħ": 7080,
      "åĲĦèĩª": 7081,
      "éĽĨåĲĪ": 7082,
      "ople": 7083,
      "æĪĳçĪ±": 7084,
      "åħ¬ä¼Ĺ": 7085,
      "æ»¿": 7086,
      "çĨŁæĤī": 7087,
      "æģĲé¾Ļ": 7088,
      "æĮĸæİĺ": 7089,
      "æ°´çļĦ": 7090,
      "åĩłå¤©": 7091,
      "çļĦæľĢä½³": 7092,
      "çļĦåĪĹè¡¨": 7093,
      "è¯ŀ": 7094,
      "æĪĳå¯¹": 7095,
      "éĿŀå¸¸æľī": 7096,
      "çļĦäººçĶŁ": 7097,
      "è´¢å¯Į": 7098,
      "åĲİæŀľ": 7099,
      "éĴĵ": 7100,
      "ical": 7101,
      "ç»ŃåĨĻåı¤è¯Ĺ": 7102,
      "éĢģç»Ļå°ıçº¢": 7103,
      "Ġå¥¹": 7104,
      "è¿Ļè¡¨æĺİ": 7105,
      "æĭĴ": 7106,
      "åŁİåł¡": 7107,
      "æħ°": 7108,
      "æĪĳæľĢè¿ĳ": 7109,
      "çļĦæĸĩåĮĸ": 7110,
      "èµ¢å¾ĹäºĨ": 7111,
      "Ä±": 7112,
      "æĺİæľĪ": 7113,
      "éĵľ": 7114,
      "æĹłæ³ķç¡®å®ļ": 7115,
      "æ¯ıä¸ªæľĭåıĭåı¯ä»¥åĪĨåĪ°": 7116,
      "æ´¾å¯¹": 7117,
      "cript": 7118,
      "çĮĽ": 7119,
      "Ġup": 7120,
      "è¿Ļä¹Ł": 7121,
      "è§£é¢ĺ": 7122,
      "æĺ¯ä¸Ģé¡¹": 7123,
      "ç»¿èī²çļĦ": 7124,
      "å±ķçİ°äºĨ": 7125,
      "çĲĨå¿µ": 7126,
      "ç¾İæ´²": 7127,
      "ç»ĵå°¾": 7128,
      "æ¨Ĥ": 7129,
      "åįıè°ĥ": 7130,
      "æµıè§Ī": 7131,
      "åĲİæĿ¥": 7132,
      "åĪĽä¸ļ": 7133,
      "çĩķéº¦": 7134,
      "è¿ĺè¦ģ": 7135,
      "æĪĲä¸ºä¸Ģä¸ª": 7136,
      "é±¼ç±»": 7137,
      "çļĦæ³¨": 7138,
      "æĺ¯ä¸ª": 7139,
      "åĨĻåĩº": 7140,
      "æķ°æį®ä¸Ń": 7141,
      "åģļä»Ģä¹Ī": 7142,
      "åĳĬè¯īæĪĳä»¬": 7143,
      "åĨ°ç®±": 7144,
      "éĩĩåıĸè¡ĮåĬ¨": 7145,
      "åħĦ": 7146,
      "åı¯åı£": 7147,
      "Ġ23": 7148,
      "å¹¿åľº": 7149,
      "å¾ĭå¸Ī": 7150,
      "çĻ¾å¹´": 7151,
      "çļĦæ½ľ": 7152,
      "å°ıéķĩ": 7153,
      "åĪ¶åº¦": 7154,
      "Ã¨": 7155,
      "é¡ŀ": 7156,
      "åĩłä¹İ": 7157,
      "çļĦä»·æł¼æĺ¯": 7158,
      "ck": 7159,
      "ä»·ä¸º": 7160,
      "é¥®çĶ¨": 7161,
      "çºªå¿µ": 7162,
      "æ¾Ī": 7163,
      "Ġå¤§": 7164,
      "æīĳ": 7165,
      "å°¾å·´": 7166,
      "çļĦåĲĮä¹īè¯į": 7167,
      "åįıä½ľ": 7168,
      "ä¼Ĳ": 7169,
      "å®ļçĲĨ": 7170,
      "æĮĩæķ°": 7171,
      "çīĽæİĴ": 7172,
      "ç©¿è¿ĩ": 7173,
      "æ¯Ķå¦Ĥè¯´": 7174,
      "çļĦç½ĳç«Ļ": 7175,
      "æĪĳæĺ¨å¤©": 7176,
      "æĦŁåı¹": 7177,
      "çĻ½äºĳ": 7178,
      "ç¿»è¯ĳæĪĲèĭ±è¯Ń": 7179,
      "çĶŁæĪĲä¸Ģä¸ªåĮħåĲ«": 7180,
      "å¨ĺ": 7181,
      "éĥ½å¾Ī": 7182,
      "ä¼łè¯´": 7183,
      "è¿Ļä¸ªæĸĩæľ¬": 7184,
      "éĢĤå®ľ": 7185,
      "çļĦç¤¾äº¤": 7186,
      "èĬĴæŀľ": 7187,
      "å¥Ķè·ĳ": 7188,
      "åķ¤": 7189,
      "ata": 7190,
      "ä¸¤ä¸ªæķ°åŃĹ": 7191,
      "å¤ķéĺ³": 7192,
      "äººåĴĮ": 7193,
      "çıĬ": 7194,
      "way": 7195,
      "çļĦæĤ": 7196,
      "æĤĦ": 7197,
      "å£®è§Ĥ": 7198,
      "ĽçĽ¾": 7199,
      "65": 7200,
      "alk": 7201,
      "Ġhis": 7202,
      "å¸¦æĿ¥çļĦ": 7203,
      "åĿļæŀľ": 7204,
      "çļĦä¸»è¦ģè§ĤçĤ¹": 7205,
      "ä¸ĭåİ»": 7206,
      "éľĢè¦ģåľ¨": 7207,
      "ç½Ĳ": 7208,
      "æ°´åĪĨ": 7209,
      "åĩłé¢Ĺç³ĸæŀľ": 7210,
      "ç¾¤ä½ĵ": 7211,
      "ä»İå°ıåĪ°": 7212,
      "sort": 7213,
      "ä¸Ńåįİ": 7214,
      "èĦĬ": 7215,
      "ha": 7216,
      "é£İéĽ¨": 7217,
      "æ·±åĳ¼åĲ¸": 7218,
      "åľ°çĲĥä¸Ĭ": 7219,
      "Ġ21": 7220,
      "åĲĳåīį": 7221,
      "è¾ħåĬ©": 7222,
      "Øª": 7223,
      "Ġtime": 7224,
      "äºĭä¸ļ": 7225,
      "æĺŁç©º": 7226,
      "ä¸Ģæ®µè¯Ŀ": 7227,
      "æ¶Īå¤±": 7228,
      "ee": 7229,
      "wo": 7230,
      "æĹ¦": 7231,
      "æ¯ıå°ıæĹ¶": 7232,
      "æľĢç»ĪçļĦçŃĶæ¡Īæĺ¯": 7233,
      "æĪĳåı¯ä»¥ä¸ºæĤ¨": 7234,
      "ï¼ļ\",": 7235,
      "ä¿¡æģ¯åĴĮ": 7236,
      "çļĦå®ļä¹ī": 7237,
      "è¾Ĳ": 7238,
      "åİĨç¨ĭ": 7239,
      "çļĦçľ¼çĿĽ": 7240,
      "ĠØ§ÙĦ": 7241,
      "anguage": 7242,
      "éĢīæĭ©ä¸Ģä¸ª": 7243,
      "ç¤¾æľĥ": 7244,
      "çļĦä¸įåĲĮ": 7245,
      "éĩįåĬĽ": 7246,
      "åĸľæĤ¦": 7247,
      "çľŁå¥½": 7248,
      "å®¶åĽŃ": 7249,
      "ç»ĻåĩºçļĦ": 7250,
      "èº«ä½ĵåĴĮ": 7251,
      "æµģè¡ĮçļĦ": 7252,
      "ä¸ªæĢ§åĮĸ": 7253,
      "æĤłä¹ħ": 7254,
      "çļĦä¸ľè¥¿": 7255,
      "ä¸ªé¸¡èĽĭ": 7256,
      "å¤±èĲ½": 7257,
      "ien": 7258,
      "çļĦä¸Ńå¿ĥ": 7259,
      "ç»½": 7260,
      "å°ıèĬ³": 7261,
      "åı¯ä»¥æıĲä¾Ľ": 7262,
      "åĹ¯": 7263,
      "åĬ£": 7264,
      "led": 7265,
      "åĪĨéļĶ": 7266,
      "æĿ¥æıĲé«ĺ": 7267,
      "ä¿¡çĶ¨": 7268,
      "äºķ": 7269,
      "éĢĽ": 7270,
      "é«ĺéĢŁ": 7271,
      "åıĹåĪ°äºĨ": 7272,
      "åĪĽå§ĭ": 7273,
      "åĪĨç±»åĻ¨": 7274,
      "è¡£è£Ļ": 7275,
      "ç§ĭé£İ": 7276,
      "çļĦæ°ĶåĢĻ": 7277,
      "æĪĴ": 7278,
      "æĺ¯äººç±»": 7279,
      "ä»ĸéĢģ": 7280,
      "ä»¥ä¸ĭæĸĩç«ł": 7281,
      "æīĭéĩĮ": 7282,
      "è¯ŃæĢģ": 7283,
      "æķĻå¸Ī": 7284,
      "èĢģæĿ¿": 7285,
      "ç»ĵæŀĦåĴĮ": 7286,
      "æłĩåĩĨå·®": 7287,
      "çº¢çĥ§": 7288,
      "æ¯įäº²": 7289,
      "å¥ĩæĢª": 7290,
      "ä¿ĿæĬ¤çİ¯å¢ĥ": 7291,
      "æĬ¢": 7292,
      "äºĳè®¡ç®Ĺ": 7293,
      "çļĦæ©ĻåŃĲ": 7294,
      "ä¸Ģèĩ´": 7295,
      "èĩĤ": 7296,
      "çº¢çĲĥ": 7297,
      "æ¿ĢåĬ±": 7298,
      "çĥŃéĩı": 7299,
      "Ġ45": 7300,
      "ç¬ĳè¯Ŀ": 7301,
      "åħ³éĹŃ": 7302,
      "é¡ºåºıæİĴåĪĹ": 7303,
      "æīĩ": 7304,
      "å¸®åĬ©ä½ł": 7305,
      "é»Ħéĩĳ": 7306,
      "çļĦæ¯Ľ": 7307,
      "é¢ĺæĿĲ": 7308,
      "çļĦçı": 7309,
      "ä½Ĩä¸į": 7310,
      "ç¢°": 7311,
      "ä½Ļæķ°": 7312,
      "æĪĳåĸľæ¬¢åĲĥ": 7313,
      "è¡Ģç®¡": 7314,
      "äººæĢ§": 7315,
      "ä¸ĩåħĥ": 7316,
      "åķ¤éħĴ": 7317,
      "cess": 7318,
      "è®©æĤ¨": 7319,
      "æ¿Ģåıĳ": 7320,
      "æ¾³å¤§åĪ©": 7321,
      "å¼ķå¯¼": 7322,
      "åħ·ä½ĵæĿ¥è¯´": 7323,
      "çŀ¬éĹ´": 7324,
      "åı¤èĢģçļĦ": 7325,
      "éľĢè¦ģçĶ¨": 7326,
      "æ°ĶçĲĥ": 7327,
      "çļĦç»ıåħ¸": 7328,
      "ç©¿ä¸Ĭ": 7329,
      "Pythonä»£çłģ": 7330,
      "æľĢéĢĤåĲĪ": 7331,
      "æ¨±": 7332,
      "åĶ¤": 7333,
      "åĽ¾å½¢": 7334,
      "éĿ¢ç§¯ä¸º": 7335,
      "å¯ĤéĿĻ": 7336,
      "ert": 7337,
      "ä»£æĽ¿": 7338,
      "èŃ·": 7339,
      "She": 7340,
      "æĹ±": 7341,
      "è¾¨": 7342,
      "Ġstud": 7343,
      "é«ĺçº§": 7344,
      "åıĳçĶŁåľ¨": 7345,
      "ais": 7346,
      "å°Ĩä¸Ģä¸ª": 7347,
      "éĴ»": 7348,
      "use": 7349,
      "æ¯Ķå°ıæĺİ": 7350,
      "æ¸©æŁĶ": 7351,
      "åĴĮæ²»çĸĹ": 7352,
      "éĴ¥": 7353,
      "BA": 7354,
      "åĵ¡": 7355,
      "ç³»çµ±": 7356,
      "ç»¼ä¸ĬæīĢè¿°": 7357,
      "çļĦçī©åĵģ": 7358,
      "éħµ": 7359,
      "æĳ¸": 7360,
      "åĭº": 7361,
      "èīºæľ¯åĵģ": 7362,
      "¯æķĳ": 7363,
      "Ġ>": 7364,
      "åŃĹçļĦ": 7365,
      "å¤ıå¨ģ": 7366,
      "è¿ŀè¡£è£Ļ": 7367,
      "èļģ": 7368,
      "Ġabout": 7369,
      "å¤ıå¨ģå¤·": 7370,
      "42": 7371,
      "ç»Ļå®ļä¸Ģæ®µæĸĩæľ¬": 7372,
      "è¯·æĤ¨": 7373,
      "çĶµå½±è¯Ħè®º": 7374,
      "åıĳå±ķçļĦ": 7375,
      "ç¤¾ä¼ļçļĦ": 7376,
      "æĥĬåı¹": 7377,
      "åĩīçĪ½": 7378,
      "çļĦæĻ¯è±¡": 7379,
      "gh": 7380,
      "éħįç½®": 7381,
      "å¸ĮèħĬ": 7382,
      "èĥľåľ°": 7383,
      "è£¤åŃĲ": 7384,
      "kg": 7385,
      "æľ´": 7386,
      "éĤ£è¯·éĹ®": 7387,
      "èįīåľ°": 7388,
      "èĬ±åĽŃéĩĮ": 7389,
      "æ¾³å¤§åĪ©äºļ": 7390,
      "æľīäºĨ": 7391,
      "æĪĳæľīä¸Ģä¸ª": 7392,
      "çļĦæĵ": 7393,
      "åĵĢ": 7394,
      "çĭ¬èĩª": 7395,
      "IM": 7396,
      "éĤ£è¯·ä½ł": 7397,
      "åĩĨå¤ĩå¥½": 7398,
      "78": 7399,
      "åĴĮå»ºè®®": 7400,
      "å¹¶åĪĹåĩº": 7401,
      "éľĢè¦ģä½¿çĶ¨": 7402,
      "ä¹ĭä½ľ": 7403,
      "è¥¿åħ°": 7404,
      "ĠIn": 7405,
      "è¿Ļæĺ¯ä¸Ģéĥ¨": 7406,
      "ç§ĳåŃ¦å®¶ä»¬": 7407,
      "åıĺéĿ©": 7408,
      "çĮ«åĴĮ": 7409,
      "ä¸¥æł¼": 7410,
      "å¸ķ": 7411,
      "çļĦæ»": 7412,
      "å¦Ĥä»Ĭ": 7413,
      "çļĦæİªæĸ½": 7414,
      "åĲĮä¸Ģ": 7415,
      "éĢĶä¸Ń": 7416,
      "è¾Ĳå°Ħ": 7417,
      "ç¬¬åĽĽ": 7418,
      "tr": 7419,
      "è¿Ļä¸īä¸ª": 7420,
      "çĶ¨é¤Ĳ": 7421,
      "æĪĳä»¬åľ¨": 7422,
      "èµ·åºĬ": 7423,
      "å®¢è§Ĥ": 7424,
      "èįīåľ°ä¸Ĭ": 7425,
      "è©¹": 7426,
      "åĸĤ": 7427,
      "ç§ĳæĬĢåħ¬åı¸": 7428,
      "åı¯èĥ½ä¼ļå¯¼èĩ´": 7429,
      "çłĶåıĳ": 7430,
      "×Ļ": 7431,
      "æ¦Ĥçİĩ": 7432,
      "é¸ŃåŃĲ": 7433,
      "ĠçĭĹ": 7434,
      "åı¯è§Ĩ": 7435,
      "æĸĩè¨Ģ": 7436,
      "é£İæļ´": 7437,
      "éħįæĸ¹": 7438,
      "æĿĥåĪ©": 7439,
      "erson": 7440,
      "çĹĽèĭ¦": 7441,
      "è´¨æķ°": 7442,
      "Ġ->": 7443,
      "äºĨä¸Ģä½į": 7444,
      "äºĨä¸Ģåľº": 7445,
      "å¹³åĿĩåĪĨç»Ļä»ĸçļĦ": 7446,
      "çĻĮçĹĩ": 7447,
      "éĤ£ä¹Īè¯·ä½ł": 7448,
      "éħįåĲĪ": 7449,
      "é²ľèĬ±": 7450,
      "æĭ¯æķĳ": 7451,
      "è¿ľç¨ĭ": 7452,
      "èµł": 7453,
      "ç¨Ģ": 7454,
      "ok": 7455,
      "éĩİçĶŁåĬ¨çī©": 7456,
      "çĽ¸å¯¹è®º": 7457,
      "book": 7458,
      "å¹³åĿĩåĪĨéħį": 7459,
      "æ¹Ľ": 7460,
      "äºīè®®": 7461,
      "åĴĮæĬĢæľ¯": 7462,
      "éľŀ": 7463,
      "æ¼ĶåĶ±": 7464,
      "çĥ¤çĽĺ": 7465,
      "ä¹ĺç§¯": 7466,
      "oss": 7467,
      "å¼ķèµ·äºĨ": 7468,
      "à§": 7469,
      "æ³Ħ": 7470,
      "åĢº": 7471,
      "å¸®ä½ł": 7472,
      "ater": 7473,
      "é¦ĸæ¬¡": 7474,
      "ĠWorld": 7475,
      "è£¹": 7476,
      "è´Ŀå°Ķ": 7477,
      "èı²å°Ķéĵģå¡Ķ": 7478,
      "ä¼ļå¯¹": 7479,
      "éĩĩçĶ¨äºĨ": 7480,
      "Ñĥ": 7481,
      "å¤ªå¤ļ": 7482,
      "å¥¥æĸ¯åį¡": 7483,
      "æĸĩè¨Ģæĸĩ": 7484,
      "åĴĮå·¥ä½ľ": 7485,
      "è¦ģçĤ¹": 7486,
      "å¹²çĩ¥": 7487,
      "ç«Ļåľ¨": 7488,
      "riend": 7489,
      "æ¹¿åº¦": 7490,
      "che": 7491,
      "è¯¥åı¥åŃĲ": 7492,
      "æ¯ıä¸ªæľĭåıĭåı¯ä»¥å¾ĹåĪ°": 7493,
      "éĩĩåıĸæİªæĸ½": 7494,
      "æĿ°åħĭ": 7495,
      "æ©¡çļ®": 7496,
      "éĹ°å¹´": 7497,
      "BM": 7498,
      "ä¸ĬçıŃ": 7499,
      "å¢ŀæ·»": 7500,
      "åįļå®¢": 7501,
      "è¿ĽäºĨ": 7502,
      "æº¯": 7503,
      "å¹¿æ³ĽçļĦåºĶçĶ¨": 7504,
      "é¢Ŀå¤ĸ": 7505,
      "çªĹæĪ·": 7506,
      "åĴĮçİ¯å¢ĥ": 7507,
      "åĩŃ": 7508,
      "è¿Ļå°±æĺ¯": 7509,
      "æĦŁæĥħ": 7510,
      "ä»»æĦı": 7511,
      "åĩłç§į": 7512,
      "åħ¶ä»ĸçļĦ": 7513,
      "é»Ħèī²çļĦ": 7514,
      "åĶ±æŃĮ": 7515,
      "ä½łè§īå¾Ĺ": 7516,
      "string": 7517,
      "å¼Ģå±ķ": 7518,
      "å¤´åıĳ": 7519,
      "åĲįç§°åĴĮ": 7520,
      "æķ°æį®è¿Ľè¡Į": 7521,
      "ï¼ļ(": 7522,
      "åĵŃ": 7523,
      "å»·": 7524,
      "æ³¨æĦıåĬĽ": 7525,
      "ä»¥åīį": 7526,
      "åľ¨ç¾İåĽ½": 7527,
      "å¯¿åı¸": 7528,
      "Le": 7529,
      "è¿Ļéĥ¨": 7530,
      "çŃĴ": 7531,
      "æĥ³åĪ°": 7532,
      "å®īåħ¨æĢ§": 7533,
      "Â¥": 7534,
      "å°ıçĨĬ": 7535,
      "æģ¼": 7536,
      "æ°Ķè´¨": 7537,
      "åĨĻè¯Ĺ": 7538,
      "çĥģ": 7539,
      "æ¨Ļ": 7540,
      "åħ¶ä¸ŃåĮħåĲ«": 7541,
      "çĶŁçī©åŃ¦": 7542,
      "ä¾ĿçĦ¶": 7543,
      "64": 7544,
      "ike": 7545,
      "çļĦä½ľåĵģ": 7546,
      "çļĦè¯įè¯Ń": 7547,
      "ç§¦": 7548,
      "é¦Ļåĳ³": 7549,
      "çļĦäººåĲį": 7550,
      "çīĽé¡¿": 7551,
      "çĸ²åĬ³": 7552,
      "lst": 7553,
      "æĪĳçİ°åľ¨": 7554,
      "éĢīæīĭ": 7555,
      "åĨ°åĿĹ": 7556,
      "åº§ä½į": 7557,
      "ca": 7558,
      "sh": 7559,
      "è¿Ľè¡Įæĳĺè¦ģ": 7560,
      "Ġpre": 7561,
      "åĲĥé¥Ń": 7562,
      "ä»ĸä»¬çļĦå¯¹è¯ĿåĨħå®¹": 7563,
      "ä¹Łå°±æĺ¯è¯´": 7564,
      "ï¼ļï¼Ī": 7565,
      "æľĢéĩįè¦ģçļĦ": 7566,
      "å¾Īé«ĺåħ´": 7567,
      "loat": 7568,
      "æķ°çĽ®": 7569,
      "ä¹Łæ²¡æľī": 7570,
      "èº«æĿĲ": 7571,
      "æµ·å²¸": 7572,
      "éĢļè¿ĩå¯¹": 7573,
      "é¡µéĿ¢": 7574,
      "800": 7575,
      "Ġä¸Ń": 7576,
      "ä¸ĺ": 7577,
      "æĽ´å¥½åľ°äºĨè§£": 7578,
      "èµ¤": 7579,
      "åĬłåİļ": 7580,
      "ç¾İè§Ĥ": 7581,
      "åģļçļĦ": 7582,
      "ä¸»è¦ģè§ĤçĤ¹": 7583,
      "å¾Īå¤ļäºº": 7584,
      "èĲ¥éĢł": 7585,
      "å¯¼èĩ´äºĨ": 7586,
      "æĽ´åħ·ä½ĵ": 7587,
      "Ġbanana": 7588,
      "åĤ²": 7589,
      "ç»ĦæĪĲéĥ¨åĪĨ": 7590,
      "ç©ºæ°Ķä¸Ń": 7591,
      "åľ¨ç»Ļå®ļçļĦæĸĩæľ¬ä¸Ń": 7592,
      "æĸĲ": 7593,
      "å¥³ç¥ŀ": 7594,
      "å·´è¥¿": 7595,
      "æĺ¥èĬĤ": 7596,
      "éļĬ": 7597,
      "ç»ĵå±Ģ": 7598,
      "ä»·æł¼ä¸º": 7599,
      "åĪ°æĿ¥": 7600,
      "åħ¶å®ĥ": 7601,
      "åħ¥äºĨ": 7602,
      "çĶŁæ´»çļĦ": 7603,
      "åĳ½åĲį": 7604,
      "èµ°åľ¨": 7605,
      "ä¸įæĸŃåıĳå±ķ": 7606,
      "éĹªçĥģ": 7607,
      "çĴ°å¢ĥ": 7608,
      "æĪĲäºĨ": 7609,
      "ï¼Ł\"": 7610,
      "è¡ĮæĶ¿": 7611,
      "åĬłå·¥": 7612,
      "ç»ıèĲ¥": 7613,
      "èĢģäºº": 7614,
      "çļĦè§£": 7615,
      "åĴĮè¡Įä¸º": 7616,
      "çĽ¸åħ³çļĦéĹ®é¢ĺ": 7617,
      "æĲºå¸¦": 7618,
      "ll": 7619,
      "éĻµ": 7620,
      "æ»¨": 7621,
      "èĢĥèĻĳåĪ°": 7622,
      "çļĦæ¬¡": 7623,
      "ä¸Ģé¢Ĺ": 7624,
      "å¾Īä¸įéĶĻ": 7625,
      "åĽłä¸ºæĪĳ": 7626,
      "æĢĿè·¯": 7627,
      "èĩªçĦ¶çķĮ": 7628,
      "ĠIt": 7629,
      "èŀįåĮĸ": 7630,
      "åı¬": 7631,
      "ä¸Ńä½¿çĶ¨": 7632,
      "è¡¨è¾¾æĸ¹å¼ı": 7633,
      "åĽºå®ļ": 7634,
      "ç´«èī²": 7635,
      "æİ¨æĸŃåĩº": 7636,
      "çļĦæł¸å¿ĥ": 7637,
      "åŀĭåı·": 7638,
      "Ġknow": 7639,
      "æĿ¥è¿Ľè¡Į": 7640,
      "èĪŁ": 7641,
      "åħĪå°Ĩ": 7642,
      "è¿ĳæĹ¥": 7643,
      "ç¥Ŀç¦ı": 7644,
      "æĻºèĥ½åĮĸ": 7645,
      "æ¯ıä¸ªæľĭåıĭèĥ½åĪĨåĪ°": 7646,
      "åįī": 7647,
      "éľĢè¦ģçļĦ": 7648,
      "å¢ŀåĬłäºĨ": 7649,
      "è¢«è§Ĩä¸º": 7650,
      "Ġ35": 7651,
      "äººä»¬åľ¨": 7652,
      "æĹłçº¿": 7653,
      "æ¸ħçĪ½": 7654,
      "æħķ": 7655,
      "åŃķ": 7656,
      "åĬ¨è¯ŃæĢģ": 7657,
      "numbers": 7658,
      "åĩºçİ°æ¬¡æķ°": 7659,
      "ä¾ł": 7660,
      "æ¸ł": 7661,
      "åĮĸå¦Ĩ": 7662,
      "å¤ĸæĺŁ": 7663,
      "ank": 7664,
      "å¥ĩå¹»": 7665,
      "å¸ħæ°Ķ": 7666,
      "åıĥ": 7667,
      "å°ıå¿ĥ": 7668,
      "å¤§è§Ħæ¨¡": 7669,
      "æĶ¹éĿ©": 7670,
      "è¯¦ç»ĨåĽŀçŃĶ": 7671,
      "æĺİæĺ¾çļĦ": 7672,
      "åįĵè¶Ĭ": 7673,
      "çļĦç¤¼çī©": 7674,
      "åĲģ": 7675,
      "å°Ĩäºİ": 7676,
      "å¹´åīį": 7677,
      "åħ¬åħĥ": 7678,
      "æ¯Ķçī¹": 7679,
      "åıĭæĥħ": 7680,
      "æ¸ħæ¾Ī": 7681,
      "èıľè°±": 7682,
      "çļĦæĻļ": 7683,
      "ï¼ļ\"))": 7684,
      "çļĦçĪ¶": 7685,
      "ä»¥ä¸ĭæŃ¥éª¤": 7686,
      "æ¨¡æĭŁäººç±»": 7687,
      "èĲ½åľ¨": 7688,
      "äººåĲįåĴĮ": 7689,
      "æĦıæĢĿæĺ¯": 7690,
      "çļĦæ²»çĸĹ": 7691,
      "åĿĩè¡¡": 7692,
      "çļĦæĶ¿": 7693,
      "è·Łè¸ª": 7694,
      "Ġ{": 7695,
      "çķĶ": 7696,
      "å¹³çŃī": 7697,
      "å¹¿æ³ĽåºĶçĶ¨": 7698,
      "åľ¨è¿Ļç§įæĥħåĨµä¸ĭ": 7699,
      "å¹¿æ³ĽçļĦ": 7700,
      "çļĦè¡£æľį": 7701,
      "èĲĿ": 7702,
      "me": 7703,
      "ä¸ĭè½½": 7704,
      "èĬĤçº¦": 7705,
      "å¼ºçļĦ": 7706,
      "ç§ĳæĬĢçļĦ": 7707,
      "æľĢå¤ļåı¯ä»¥": 7708,
      "å¸¸çĶ¨çļĦ": 7709,
      "æĳĺè¦ģçĶŁæĪĲ": 7710,
      "å¼ķäººåħ¥": 7711,
      "ä½łè®¤ä¸º": 7712,
      "æĽ´é«ĺçļĦ": 7713,
      "æ´¥": 7714,
      "åĸľæ¬¢åľ¨": 7715,
      "èİ²": 7716,
      "æĺ¯åĲ¦ä¸º": 7717,
      "éĢłæĪĲäºĨ": 7718,
      "å¢¨è¥¿": 7719,
      "æŀª": 7720,
      "åĽłæŃ¤åı¯ä»¥": 7721,
      "çĥŃçĪ±": 7722,
      "åį±æľº": 7723,
      "ä¸ĢåįĬ": 7724,
      "æ¡ĳ": 7725,
      "Ġau": 7726,
      "æ²¿çĿĢ": 7727,
      "çļĦæłĩé¢ĺ": 7728,
      "åĴĮæµ·": 7729,
      "å½°": 7730,
      "åŃ¦éĻ¢": 7731,
      "å®¶ä¹¡": 7732,
      "ä¿ĿåŃĺ": 7733,
      "å¤įä»ĩ": 7734,
      "çļĦæµ·æ´ĭ": 7735,
      "å¤§æ°Ķå±Ĥ": 7736,
      "å¢¨è¥¿åĵ¥": 7737,
      "æ¯¯": 7738,
      "å¹¶å¯¹": 7739,
      "å©Ĩ": 7740,
      "çĻ¼å±ķ": 7741,
      "ces": 7742,
      "ĠPython": 7743,
      "æľĢåĪĿ": 7744,
      "æĹ¥èĩ³": 7745,
      "æĺŁç³»": 7746,
      "æ¼Ķå¥ı": 7747,
      "é¢ĨåŁŁä¸Ń": 7748,
      "æħ¨": 7749,
      "ç¢±": 7750,
      "çļĦç¬ĳè¯Ŀ": 7751,
      "åħ¹": 7752,
      "å¾Ĳ": 7753,
      "æĸĩæľ¬åĪĨç±»": 7754,
      "å°Ĩåħ¶ä¸ŃçļĦ": 7755,
      "çĽĴåŃĲ": 7756,
      "ï¼Ł-": 7757,
      "çĪ·": 7758,
      "æķ°åŃ¦ä¹¦": 7759,
      "çªĥ": 7760,
      "çĽĳç®¡": 7761,
      "åĺī": 7762,
      "ier": 7763,
      "Ġ\\\\": 7764,
      "éľ¸": 7765,
      "å±ķç¤ºäºĨ": 7766,
      "aime": 7767,
      "æľīæĹ¶åĢĻ": 7768,
      "çŃīå¤ļç§į": 7769,
      "æŁı": 7770,
      "çĶµå½±éĻ¢": 7771,
      "ates": 7772,
      "åĭ¾": 7773,
      "æ¯ħ": 7774,
      "ä»ĬæĻļ": 7775,
      "çĦ¶åĲİåĨį": 7776,
      "123": 7777,
      "æľīäºĽäºº": 7778,
      "åŀĥåľ¾éĤ®ä»¶": 7779,
      "è°ĥåĳ³æĸĻ": 7780,
      "çļĦè¯Ĺ": 7781,
      "ä¸ªå°ıçĲĥ": 7782,
      "åºŀ": 7783,
      "èĥ½å¤ł": 7784,
      "å¥½åıĭ": 7785,
      "å¥½åĲĥ": 7786,
      "ç»Ļåĩºä»¥ä¸ĭ": 7787,
      "AIæĬĢæľ¯": 7788,
      "çļĦæĬķèµĦ": 7789,
      "èħº": 7790,
      "åī¯è¯į": 7791,
      "æŀģç«¯å¤©æ°Ķ": 7792,
      "å¼ķäººåħ¥èĥľ": 7793,
      "çļĦå±±": 7794,
      "å°İ": 7795,
      "åĴĮæľĭåıĭ": 7796,
      "èĢĮåľ¨": 7797,
      "åİ»çľĭ": 7798,
      "ä¸įåģľ": 7799,
      "çĽİ": 7800,
      "æĻĵ": 7801,
      "è¯·å¯¹": 7802,
      "ç¯ĩæĸĩç«ł": 7803,
      "è¿ĻäºĽéĹ®é¢ĺ": 7804,
      "åįĹäº¬": 7805,
      "éģĶ": 7806,
      "Ġpizza": 7807,
      "ML": 7808,
      "æĿı": 7809,
      "çºµ": 7810,
      "æ²®": 7811,
      "Ġwould": 7812,
      "éħ±æ²¹": 7813,
      "äººéĻħ": 7814,
      "åı¯ä»¥ä»İ": 7815,
      "ä½Ĩä¹Ł": 7816,
      "åŀĭçĶ·": 7817,
      "å¦Ĥæŀľæľī": 7818,
      "é¥º": 7819,
      "åı¯èĥ½éľĢè¦ģ": 7820,
      "é©¬åħĭ": 7821,
      "ç²¾åĩĨ": 7822,
      "å¹²æī°": 7823,
      "å¤§åĨĻåŃĹæ¯į": 7824,
      "çĶ·çĶŁåĴĮ": 7825,
      "æŃ£æĸ¹å½¢": 7826,
      "çļĦæĵį": 7827,
      "Ġä¸Ģ": 7828,
      "æĹ¶çļĦ": 7829,
      "å¤ĸéĥ¨": 7830,
      "è®¡ç®Ĺå®ĥä»¬çļĦ": 7831,
      "ç»ĵæŀľè¡¨æĺİ": 7832,
      "çĪ¶äº²": 7833,
      "My": 7834,
      "æĢ»éĥ¨": 7835,
      "ä¸Ńæī¾åĪ°": 7836,
      "æĺ¯ä¸Ģä¸ªéĿŀå¸¸": 7837,
      "Ðº": 7838,
      "çļĦæľºä¼ļ": 7839,
      "Ġtransl": 7840,
      "çķı": 7841,
      "æī§å¯¼": 7842,
      "çļĦæİ¨çĲĨè¿ĩç¨ĭ": 7843,
      "Ø¯": 7844,
      "åĬ¨æľº": 7845,
      "èµ°è¿ĩ": 7846,
      "æĺ¯ä¸ºäºĨ": 7847,
      "ä¸įçŁ¥": 7848,
      "ä¸Ģä¸ªå°ı": 7849,
      "ä»£è¯į": 7850,
      "åħīåĲĪ": 7851,
      "å®¢äºº": 7852,
      "æ¿Ģæĥħ": 7853,
      "ç³Łç³ķ": 7854,
      "çļĦæŃĮè¯į": 7855,
      "ä»¥å¸®åĬ©": 7856,
      "åīµ": 7857,
      "åĮħè£ħ": 7858,
      "ä»Ģä¹Īæł·çļĦ": 7859,
      "è¥¿äºļ": 7860,
      "é¾Ł": 7861,
      "åĿļå®ļ": 7862,
      "è¡Ģåİĭ": 7863,
      "ä¸ªåŃ¦çĶŁ": 7864,
      "è¯¥éĹ®é¢ĺ": 7865,
      "ä¸¤ä½į": 7866,
      "åĪ¶åĵģ": 7867,
      "é¦ĻèĤł": 7868,
      "çļĦæĬ«èĲ¨": 7869,
      "ç§ĳå¹»çĶµå½±": 7870,
      "åİ»éĻ¤": 7871,
      "æŃ£éĿ¢çļĦ": 7872,
      "çªģçł´": 7873,
      "æĶ¹åıĺäºĨ": 7874,
      "åĪĩæĪĲå°ıåĿĹ": 7875,
      "æ¤ħåŃĲ": 7876,
      "æŀ«åı¶": 7877,
      "Ġè¡¨ç¤º": 7878,
      "çŃīå¤ļä¸ª": 7879,
      "åįĩèµ·": 7880,
      "ction": 7881,
      "å¥ĸé¡¹": 7882,
      "ä½łçļĦåĽŀçŃĶ": 7883,
      "å®ĮæĪĲäºĨ": 7884,
      "æ¡Ĥ": 7885,
      "åĤ¬": 7886,
      "çļĦåħĥç´ł": 7887,
      "Ġ32": 7888,
      "ings": 7889,
      "æŀģæĢ§": 7890,
      "åĽĽåŃ£": 7891,
      "åįģäºĮ": 7892,
      "å¹³åĿĩæķ°": 7893,
      "åį³åı¯å¾ĹåĪ°": 7894,
      "è«ĭ": 7895,
      "æľīå®³": 7896,
      "åħ¬æŃ£": 7897,
      "è¿ŀè´¯": 7898,
      "å¦ĤæŀľæĤ¨åĸľæ¬¢": 7899,
      "ä¸įèī¯": 7900,
      "Ġ22": 7901,
      "ç»½æĶ¾": 7902,
      "çļĦåģ¥åº·": 7903,
      "å¤§å¤§": 7904,
      "è®¾å®ļ": 7905,
      "ä¹ĲåĻ¨": 7906,
      "æĪĺçķ¥": 7907,
      "duct": 7908,
      "åĩıç¼ĵ": 7909,
      "å®¢æľį": 7910,
      "çļĦéĴ±æķ°": 7911,
      "Ġà®": 7912,
      "èĩ£": 7913,
      "å¤§éĥ¨åĪĨ": 7914,
      "å¤ļåħĥ": 7915,
      "åıĳå°Ħ": 7916,
      "é£İåĳ³": 7917,
      "é©¬å°Ķ": 7918,
      "åłª": 7919,
      "åį³åı¯äº«çĶ¨": 7920,
      "çļĦæŁĲ": 7921,
      "çļĦæ³ķå¾ĭ": 7922,
      "æĪĳæľĢåĸľæ¬¢çļĦ": 7923,
      "çĶŁèıľ": 7924,
      "å·¥èµĦ": 7925,
      "éŁ³ä¹Ĳä¼ļ": 7926,
      "æĺŁçĲĥå¤§æĪĺ": 7927,
      "Ġåıª": 7928,
      "ä¸Ģå°ģ": 7929,
      "æİ¥ç§į": 7930,
      "çļĦä¸Ń": 7931,
      "åĴĮçĲĨè§£": 7932,
      "è¿Ļæĺ¯ä¸Ģç§į": 7933,
      "æııè¿°ä¸Ģç§į": 7934,
      "é©Ĺ": 7935,
      "çİ¯å¢ĥä¸Ń": 7936,
      "çħ§é¡¾": 7937,
      "æľ¬åľ°": 7938,
      "åĢ¼ä¸º": 7939,
      "æĪĳä»¬éľĢè¦ģå°Ĩ": 7940,
      "ç»Ļå®ļä¸Ģæ®µ": 7941,
      "è´¨æĦŁ": 7942,
      "ä¸ĭéĿ¢æĺ¯": 7943,
      "Ġdoes": 7944,
      "38": 7945,
      "ï¼Ĳ": 7946,
      "æľīçĶ¨": 7947,
      "åľ°éĿ¢": 7948,
      "è¯·æł¹æį®": 7949,
      "éĤ£ä¹Īçİ°åľ¨": 7950,
      "ä½ľä¸ºAIè¯Ńè¨Ģæ¨¡åŀĭ": 7951,
      "çļĦæ±½": 7952,
      "SA": 7953,
      "ä¸įè§ģ": 7954,
      "ä»ĸåıĪ": 7955,
      "åħ¶ä¸ŃæľĢ": 7956,
      "ãģ®": 7957,
      "èĩªè½¬": 7958,
      "æ³ķéĻ¢": 7959,
      "æĹłæķ°": 7960,
      "åįĩåºı": 7961,
      "é²¨é±¼": 7962,
      "æĽ´åħ·": 7963,
      "åĲĪæĪĲ": 7964,
      "ä¸¤è¾¹": 7965,
      "æĤ¨åı¯ä»¥ä½¿çĶ¨": 7966,
      "åĴĮæķ°æį®": 7967,
      "æĦŁåĬ¨": 7968,
      "èĤ¢": 7969,
      "æµģæµª": 7970,
      "çļĦæ²ŁéĢļ": 7971,
      "æıĴåħ¥": 7972,
      "Ġäººå·¥æĻºèĥ½": 7973,
      "ä½łæľīä»Ģä¹Ī": 7974,
      "Ġapple": 7975,
      "ict": 7976,
      "Ġwho": 7977,
      "ĠYou": 7978,
      "Ġèĭ¹æŀľ": 7979,
      "ä¸ĢçĶŁ": 7980,
      "ä¸Ģä¸ªéĹ®é¢ĺ": 7981,
      "åĬłæĭ¿": 7982,
      "ä¾Ŀæį®": 7983,
      "åĲİçļĦç»ĵæŀľ": 7984,
      "éĥ½éĿŀå¸¸": 7985,
      "åıªéľĢè¦ģ": 7986,
      "ä¸ĵæ³¨äºİ": 7987,
      "èī²è°ĥ": 7988,
      "èĢĮéĹ»åĲį": 7989,
      "æĹ¥èĲ½": 7990,
      "æŃ£æĸĩ": 7991,
      "çĶ·å¥³": 7992,
      "çµ¦": 7993,
      "joy": 7994,
      "æıĲåıĸåĩºæĿ¥": 7995,
      "æ¸ħæĻ¨": 7996,
      "åį§å®¤": 7997,
      "çļĦç²¾ç¥ŀ": 7998,
      "Apple": 7999,
      "åĴ¬": 8000,
      "åĩĳ": 8001,
      "å®ĥä»¬æĺ¯": 8002,
      "ç¼ºå°ĳ": 8003,
      "åıĺæĪĲäºĨ": 8004,
      "çŃīæĸ¹å¼ı": 8005,
      "çļĦçħ": 8006,
      "éĩĮæĸ¯": 8007,
      "äº¤æį¢": 8008,
      "èĮĤ": 8009,
      "ä¸ŃåĽ½åı¤ä»£": 8010,
      "æĥĬåĸľ": 8011,
      "éĿłè¿ĳ": 8012,
      "CO": 8013,
      "æµ·æĭĶ": 8014,
      "å¥Ī": 8015,
      "åĪĨä¹ĭ": 8016,
      "æīĭä¸Ĭ": 8017,
      "é¸¡èĥ¸": 8018,
      "ä¿ĿæĮģåģ¥åº·": 8019,
      "ä¸ĩç¾İåħĥ": 8020,
      "åĨ°å·Ŀ": 8021,
      "éĸĭå§ĭ": 8022,
      "æĪ¶": 8023,
      "Ġar": 8024,
      "çº¦ä¼ļ": 8025,
      "è¿ĺæľīä¸ĢäºĽ": 8026,
      "åĽ¾åĥıè¯ĨåĪ«": 8027,
      "é»Ľçİī": 8028,
      "Ġsa": 8029,
      "è¯ķéªĮ": 8030,
      "åħ¸åŀĭ": 8031,
      "Ùĩ": 8032,
      "ä¿¯": 8033,
      "è®°èĢħ": 8034,
      "åħħçĶµ": 8035,
      "åŃĺåľ¨çļĦ": 8036,
      "è§Ĥæµĭ": 8037,
      "æłĳä¸Ĭ": 8038,
      "Ġ\\": 8039,
      "å¹´åº¦": 8040,
      "å¸¸çĶ¨": 8041,
      "ç§ĭåĨ¬": 8042,
      "ä½ľèĢħå¯¹": 8043,
      "æĩĴæĥ°çļĦçĭĹ": 8044,
      "ä»ĸæĺ¯": 8045,
      "æĺİæĺŁ": 8046,
      "æĽ´å¤§çļĦ": 8047,
      "2016": 8048,
      "å®Ŀçİī": 8049,
      "é«ĺçļĦå±±å³°": 8050,
      "éĩĳæĺŁ": 8051,
      "æľªæĿ¥åıĳå±ķ": 8052,
      "é£ŀç¿Ķ": 8053,
      "æ°ĳæĹı": 8054,
      "å°įæĸ¼": 8055,
      "çļĦæ³¨æĦı": 8056,
      "Ã¤": 8057,
      "é¡ºåĪ©": 8058,
      "èĢĲçĶ¨": 8059,
      "å¼ķèµ·çļĦ": 8060,
      "ible": 8061,
      "æ²®ä¸§": 8062,
      "text": 8063,
      "ä¸ªæ©ĺåŃĲ": 8064,
      "è®©ä»ĸ": 8065,
      "è§ĴèĲ½": 8066,
      "}{": 8067,
      "çļĦå¤ľæĻļ": 8068,
      "äººç¾¤": 8069,
      "Ġdel": 8070,
      "åħ¬åı¸åĲįç§°": 8071,
      "çłĶç©¶äººåĳĺ": 8072,
      "ĠÎ": 8073,
      "æĺĶ": 8074,
      "æľīæ°§": 8075,
      "æĬļ": 8076,
      "èĪªçıŃ": 8077,
      "æĬ½è±¡": 8078,
      "®æŀĹ": 8079,
      "çļĦè®¡ç®Ĺ": 8080,
      "åħ©": 8081,
      "å¥¹åľ¨": 8082,
      "ç»ĨèıĮ": 8083,
      "180": 8084,
      "çĤºä»Ģéº¼": 8085,
      "æľµèĬ±": 8086,
      "æĦŁåıĹåĪ°äºĨ": 8087,
      "çĪ¬è¡Į": 8088,
      "æł¹æį®æıĲä¾ĽçļĦæĸĩæľ¬": 8089,
      "æĺ¯æŃ£ç¡®çļĦ": 8090,
      "åĴĮä½¿çĶ¨": 8091,
      "è¦ģåİ»": 8092,
      "æ²«": 8093,
      "æľºéģĩ": 8094,
      "è¯¥æĸĩç«ł": 8095,
      "åĲ¬éŁ³ä¹Ĳ": 8096,
      "éĢļå¸¸åľ¨": 8097,
      "ä¸ĵä¸ļçļĦ": 8098,
      "39": 8099,
      "ä»¥åħį": 8100,
      "çļĦçķ": 8101,
      "æīĭæ³ķ": 8102,
      "èĬĤçľģ": 8103,
      "ç²¾åĬĽ": 8104,
      "Ġwhat": 8105,
      "å§¿åĬ¿": 8106,
      "èĸ¯çīĩ": 8107,
      "ç»³åŃĲ": 8108,
      "ä¿Ħç½Ĺæĸ¯": 8109,
      "banana": 8110,
      "è¿ĻéĩĮæľī": 8111,
      "å°ıäºİ": 8112,
      "æĿ¥ç¡®å®ļ": 8113,
      "å®¶åĴĮ": 8114,
      "è¿ĲèĲ¥": 8115,
      "ç¦»åŃĲ": 8116,
      "éļ¾åº¦": 8117,
      "çļĦæİ¨èįĲ": 8118,
      "happy": 8119,
      "çļĦå¹´é¾Ħ": 8120,
      "ener": 8121,
      "è½»ä¾¿": 8122,
      "èµ°åĪ°": 8123,
      "ild": 8124,
      "æķıæĦŁ": 8125,
      "frac": 8126,
      "LE": 8127,
      "çļĦåĬ¨ä½ľ": 8128,
      "åĴ³": 8129,
      "ç¿»è¯ĳæĪĲçİ°ä»£": 8130,
      "è£ħä¿®": 8131,
      "æİ¢æµĭ": 8132,
      "å®īåħ¨åĴĮ": 8133,
      "çļĦæ£®æŀĹ": 8134,
      "æĵħéķ¿": 8135,
      "æĸĩçĮ®": 8136,
      "eng": 8137,
      "Ġspe": 8138,
      "èµ°åĲĳ": 8139,
      "çļĦæľĢå¤§": 8140,
      "æĸĩæľ¬çļĦ": 8141,
      "å°ĳéĩı": 8142,
      "Ġyear": 8143,
      "æŀķ": 8144,
      "å¥½å¥ĩ": 8145,
      "èĩ³ä»Ĭ": 8146,
      "çĶµåŃĲåķĨåĬ¡": 8147,
      "æ¯ıäººåĪĨåĪ°": 8148,
      "å´ĩ": 8149,
      "çļĦè¡¨çİ°": 8150,
      "åĴĮèĶ¬èıľ": 8151,
      "è¯·ä¸º": 8152,
      "éĤª": 8153,
      "æ¸ħåĩī": 8154,
      "å®Įç¾İçļĦ": 8155,
      "è¾ĥä½İ": 8156,
      "æĹ©æľŁ": 8157,
      "éļĲèĹı": 8158,
      "âĦĥï¼Į": 8159,
      "åĪĽå§ĭäºº": 8160,
      "we": 8161,
      "×ķ": 8162,
      "è¯Ī": 8163,
      "éķ¿é¢Ī": 8164,
      "æİ¢ç©¶": 8165,
      "åĪĩç¢İ": 8166,
      "æĢ¨": 8167,
      "åħ¨æĸ°çļĦ": 8168,
      "è¿Ļæł·åı¯ä»¥": 8169,
      "ade": 8170,
      "èĸª": 8171,
      "åı¯ä»¥å¸®åĬ©æĪĳä»¬": 8172,
      "èĢ³æľº": 8173,
      "åĮĸåŃ¦åıįåºĶ": 8174,
      "éĢĥèĦ±": 8175,
      "çº¿ä¸Ĭ": 8176,
      "æĽ´å¤ļçļĦä¿¡æģ¯": 8177,
      "è¿½æº¯": 8178,
      "çļĦæķĪæŀľ": 8179,
      "åĽłæĸ¯åĿ¦": 8180,
      "éĴ®": 8181,
      "åĨħåŃĺ": 8182,
      "åīįè¿Ľ": 8183,
      "å·²æĪĲä¸º": 8184,
      "éĢīæĭ©éĢĤåĲĪ": 8185,
      "è´¨éĩıåĴĮ": 8186,
      "ä¸ªä½ĵ": 8187,
      "åĩ¤": 8188,
      "è¯·å°Ĩä»¥ä¸ĭ": 8189,
      "æĺ¯ä¸Ģåıª": 8190,
      "èİİå£«": 8191,
      "76": 8192,
      "è¿Ļä¸ªåŁİå¸Ĥ": 8193,
      "ãĢĭ(": 8194,
      "åĲ¯åıĳ": 8195,
      "'m": 8196,
      "åħ¬å¹³": 8197,
      "å§»": 8198,
      "çĭĹçĭĹ": 8199,
      "Ġevery": 8200,
      "çļĦé«ĺåº¦": 8201,
      "æĽ´æĺ¯": 8202,
      "ç§ĳåĬ¨çī©": 8203,
      "æķĳæı´": 8204,
      "çļĦç®ĢçŁŃ": 8205,
      "è§£è¯»": 8206,
      "æĢĿèĢĥåĴĮ": 8207,
      "éŁ©åĽ½": 8208,
      "èİİå£«æ¯Ķäºļ": 8209,
      "ä»¥æŃ¤": 8210,
      "èĬ±é¦Ļ": 8211,
      "æķĻæİĪ": 8212,
      "èĪĴæľį": 8213,
      "åģľæŃ¢": 8214,
      "è¿Ľåı£": 8215,
      "çĸ¯": 8216,
      "ä¹°åĪ°": 8217,
      "çİ¯å¢ĥåĴĮ": 8218,
      "Ġgood": 8219,
      "åĮºåĿĹéĵ¾æĬĢæľ¯": 8220,
      "çļĦä¸Ńæĸĩç¿»è¯ĳ": 8221,
      "æĸ¯æĭī": 8222,
      "èĵĿå¤©": 8223,
      "ä¸ĭäºĨ": 8224,
      "Ġ28": 8225,
      "ä¿ĥéĶĢ": 8226,
      "çĮ´åŃĲ": 8227,
      "çĽĸèĮ¨æ¯Ķ": 8228,
      "çħ§çīĩ": 8229,
      "Ġher": 8230,
      "å®Įæķ´çļĦ": 8231,
      "é¸¡èĥ¸èĤī": 8232,
      "å¹¶è¦ģæ±Ĥ": 8233,
      "æĢ§éĹ®é¢ĺ": 8234,
      "åħ¶ä¸Ńæľī": 8235,
      "çĶŁæ´»åľ¨": 8236,
      "å¹¿éĺĶ": 8237,
      "é²ľèī³": 8238,
      "éĿĴæ¤Ĵ": 8239,
      "è®©æĪĳæĦŁåĪ°": 8240,
      "ä¸¢": 8241,
      "æĪĳåİ»äºĨ": 8242,
      "çļĦæĢ»æķ°": 8243,
      "æĳĩæ»ļ": 8244,
      "wn": 8245,
      "å½¹": 8246,
      "èĬ±å¼Ģ": 8247,
      "äººä»¬å¯¹": 8248,
      "ased": 8249,
      "ä»İä»¥ä¸ĭåı¥åŃĲä¸Ń": 8250,
      "èĢ³æľµ": 8251,
      "åĵĪåĪ©æ³¢çī¹": 8252,
      "æłĸæģ¯åľ°": 8253,
      "ç¿»è¯ĳæĪĲçİ°ä»£æĸĩ": 8254,
      "æĿ¥è¡¨ç¤º": 8255,
      "çľ¼åīį": 8256,
      "å°¿çĹħ": 8257,
      "hello": 8258,
      "ä¸ªäººçļĦ": 8259,
      "çłĤ": 8260,
      "æ¼Ĩ": 8261,
      "è°ĥçĶ¨": 8262,
      "åĳ¼åĲģ": 8263,
      "å¯Ĥå¯": 8264,
      "çļĦç¯": 8265,
      "æĸ¯çī¹": 8266,
      "å¾·è¯Ń": 8267,
      "æĪĳæĥ³äºĨè§£": 8268,
      "çļĦæĵįä½ľ": 8269,
      "ä½Ĩå®ĥä»¬": 8270,
      "éŁ³é¢ĳ": 8271,
      "è£ħå¤ĩ": 8272,
      "éĢĶå¾Ħ": 8273,
      "è¿Ļæľ¬å°ıè¯´": 8274,
      "æĪĲå¹´": 8275,
      "éĽĢ": 8276,
      "çĪµ": 8277,
      "å¥ĩå¦Ļ": 8278,
      "è®¡ç®Ĺæľºç¨ĭåºı": 8279,
      "âĢĿï¼Ī": 8280,
      "æĦŁåĨĴ": 8281,
      "èĬĤèĥ½": 8282,
      "ç»Ļå®ļçļĦæĸĩæľ¬": 8283,
      "çĻ½å¤©": 8284,
      "ĠEnglish": 8285,
      "æĪĸä¸ŃæĢ§": 8286,
      "æ¬¢å¿«": 8287,
      "Ġfol": 8288,
      "èĵĿèİĵ": 8289,
      "å²ģçļĦ": 8290,
      "å¦ĤæŀľæĤ¨æĥ³": 8291,
      "éĢĻäºĽ": 8292,
      "ä»ĸæĥ³è¦ģ": 8293,
      "æĽ´æį¢": 8294,
      "æķ°åŃĹåĮĸ": 8295,
      "æķĻåłĤ": 8296,
      "åıĳçİ°èĩªå·±": 8297,
      "åıĺå¾Ĺè¶ĬæĿ¥è¶Ĭ": 8298,
      "NN": 8299,
      "çļĦä½ľèĢħ": 8300,
      "ä½łä¹Łåı¯ä»¥": 8301,
      "æĪĳä»¬å¿ħé¡»": 8302,
      "éľĢè¦ģæĪĳ": 8303,
      "å½ĵä»£": 8304,
      "éĻįéĽ¨": 8305,
      "è·³èĪŀ": 8306,
      "atch": 8307,
      "æĶ¶çĽĬ": 8308,
      "åĲ¸å¼ķäºĨ": 8309,
      "ä½łçŁ¥éģĵ": 8310,
      "ä»£è°¢": 8311,
      "äºĨä¸Ģä»½": 8312,
      "éĢļå¸¸çĶ¨äºİ": 8313,
      "çĻ¼çı¾": 8314,
      "èļĤ": 8315,
      "ä¸Ĭè¿°æĸĩæľ¬è¿Ľè¡ĮçºłéĶĻ": 8316,
      "yes": 8317,
      "å¾Īé«ĺ": 8318,
      "å¤ªéĺ³çļĦ": 8319,
      "ĠBe": 8320,
      "åĨĽäºĭ": 8321,
      "å°ģéĹŃ": 8322,
      "æĲŀ": 8323,
      "éĶĻè¯¯çļĦ": 8324,
      "que": 8325,
      "æµ·æ»©ä¸Ĭ": 8326,
      "çĪĨçĤ¸": 8327,
      "å¼ºçĥĪçļĦ": 8328,
      "çļĦæĽ´": 8329,
      "çī§": 8330,
      "éĹ®ä»ĸ": 8331,
      "å°½æĥħ": 8332,
      "åįĩçº§": 8333,
      "åĬłåħ¥ä¸ĢäºĽ": 8334,
      "åĩĨç¡®åľ°": 8335,
      "600": 8336,
      "æĿĨ": 8337,
      "æıĲåıĬ": 8338,
      "æĮ¤": 8339,
      "åľ£æ¯į": 8340,
      "çļĦæ¯ıä¸ª": 8341,
      "Ġä¸į": 8342,
      "âĢ¢": 8343,
      "å¤©åľ°": 8344,
      "Ġ==": 8345,
      "è®©ä»ĸä»¬": 8346,
      "æĶ¯æĴĳ": 8347,
      "Ġdis": 8348,
      "æ¸ħçĲĨ": 8349,
      "ç¿»è¯ĳæĪĲæĸĩè¨Ģæĸĩ": 8350,
      "åľ°åĮºçļĦ": 8351,
      "ode": 8352,
      "EO": 8353,
      "Ġpeople": 8354,
      "åı¯ä»¥ä¸º": 8355,
      "åħ¶ä»ĸäºº": 8356,
      "çĶ¨æĪ·æıĲä¾Ľ": 8357,
      "________": 8358,
      "çģ°èī²": 8359,
      "æĭĽèģĺ": 8360,
      "çļĦåı£æĦŁ": 8361,
      "æĬ«": 8362,
      "æľºç¥¨": 8363,
      "ç®Ĺå¼ı": 8364,
      "å¤ªå¹³": 8365,
      "ä¸¤ä¸ªæķ°": 8366,
      "Ġ80": 8367,
      "åı¯çĶ¨": 8368,
      "æĢ¡": 8369,
      "èĢĮå¼Ĥ": 8370,
      "Ġac": 8371,
      "åı£ç½©": 8372,
      "æ¶ĪéĻ¤": 8373,
      "éķ¿é¢Īé¹¿": 8374,
      "åĵįåºĶ": 8375,
      "çģ«èħ¿": 8376,
      "åŃ¦çĶŁçļĦ": 8377,
      "èŀº": 8378,
      "ign": 8379,
      "æĬĵä½ı": 8380,
      "49": 8381,
      "å¤©æķ°": 8382,
      "åĮĸçŁ³": 8383,
      "å¼ºåĮĸ": 8384,
      "Ġfloat": 8385,
      "ä½łå¯¹": 8386,
      "åŃ¦ä¹łæĸ°": 8387,
      "Ġwant": 8388,
      "ask": 8389,
      "imes": 8390,
      "åıĳçĶŁäºĨ": 8391,
      "å¹¶éĢļè¿ĩ": 8392,
      "éĢļéģİ": 8393,
      "iful": 8394,
      "åĴĮçĽ®æłĩ": 8395,
      "è¿ĻäºĽéĥ½æĺ¯": 8396,
      "åıįè½¬": 8397,
      "å¸ĥæĸ¯": 8398,
      "å½Ĵçº³": 8399,
      "èļĤèļģ": 8400,
      "ove": 8401,
      "éĶĭ": 8402,
      "ä¸»è§Ĥ": 8403,
      "æ¯ıåıª": 8404,
      "ç³ĸå°¿çĹħ": 8405,
      "åĪ©äºļ": 8406,
      "è¡Ĺå¤´": 8407,
      "çļĦæ¨¡åŀĭ": 8408,
      "è¯·åĽŀçŃĶä¸ĭéĿ¢çļĦéĹ®é¢ĺ": 8409,
      "çļĦåĪĨç±»": 8410,
      "æĬ¼": 8411,
      "å¤§éĻĨ": 8412,
      "æ²Ĵ": 8413,
      "åıĳçĶµ": 8414,
      "èĶ¬èıľåĴĮ": 8415,
      "å°ıæĺİæīĭä¸Ńæľī": 8416,
      "åŁĥèı²å°Ķéĵģå¡Ķ": 8417,
      "æ·±è¿ľçļĦå½±åĵį": 8418,
      "56": 8419,
      "ç¾©": 8420,
      "åīįæĿ¥": 8421,
      "Ġco": 8422,
      "è¿ľæĸ¹": 8423,
      "æ¶µçĽĸäºĨ": 8424,
      "è©¹å§Ĩæĸ¯": 8425,
      "åĪ¥": 8426,
      "ä¸Ģä¸ªæĸ°çļĦ": 8427,
      "çľĭäºĨ": 8428,
      "çļĦäººåı£": 8429,
      "è¶ħè¶Ĭ": 8430,
      "åı¯ä»¥è¢«åĪĨç±»ä¸º": 8431,
      "çļĦç©ºéĹ´": 8432,
      "87": 8433,
      "ä»¥éģ¿åħį": 8434,
      "è¿ĺæ²¡æľī": 8435,
      "è¨±": 8436,
      "arr": 8437,
      "åįİä¸º": 8438,
      "å®¹åĻ¨": 8439,
      "éļ¾é¢ĺ": 8440,
      "è¯¦ç»Ĩä¿¡æģ¯": 8441,
      "æĻ®åıĬ": 8442,
      "5000": 8443,
      "æ¸¡": 8444,
      "æ·ĺ": 8445,
      "æĹłç©·": 8446,
      "èº²": 8447,
      "äºĨä¸Ģå®¶": 8448,
      "æłĳæŀĿ": 8449,
      "è¿Ļä¸¤ä¸ªåı¥åŃĲ": 8450,
      "æµ®å®«": 8451,
      "çŃīæĬĢæľ¯": 8452,
      "å®ŀæľ¨": 8453,
      "è®¤åı¯": 8454,
      "çİ°ä»£ç¤¾ä¼ļ": 8455,
      "åı¯ä»¥çľĭ": 8456,
      "åĪĨåī²": 8457,
      "æ¸¬": 8458,
      "å¦Ĥæŀľæĺ¯": 8459,
      "ä¹ĭä¸Ģæĺ¯": 8460,
      "ãĢĤâĢĿâĢľ": 8461,
      "åįĹéĥ¨": 8462,
      "æĿ¯ä¸Ń": 8463,
      ".'": 8464,
      "ta": 8465,
      "åľŁæĺŁ": 8466,
      "è´¢äº§": 8467,
      "çŃīä¿¡æģ¯": 8468,
      "ane": 8469,
      "Ġbl": 8470,
      "ä¼łæĦŁ": 8471,
      "çİ°æľī": 8472,
      "æĪĸç¼º": 8473,
      "æ¡Īä¾ĭ": 8474,
      "çļĦç³»": 8475,
      "åģľè½¦": 8476,
      "è´µçļĦ": 8477,
      "åį¢æµ®å®«": 8478,
      "åħ¬äº¤è½¦": 8479,
      "ï¿": 8480,
      "ç»£": 8481,
      "å»ī": 8482,
      "éĥ½è¦ģ": 8483,
      "å²Ĺ": 8484,
      "æĸ¹æ³ķæĺ¯": 8485,
      "æīįåįİ": 8486,
      "çĽĳæİ§": 8487,
      "æµĵç¼©": 8488,
      "ä¸ĢèĪ¬æĿ¥è¯´": 8489,
      "word": 8490,
      "é¢ĦæľŁ": 8491,
      "å¹¿å·ŀ": 8492,
      "è¡£çī©": 8493,
      "ä»»åĬ¡ä¸Ń": 8494,
      "åŁºæľ¬çļĦ": 8495,
      "æĭįæĳĦ": 8496,
      "Qu": 8497,
      "ject": 8498,
      "å·¢": 8499,
      "åĽłä¸ºä»ĸ": 8500,
      "ç®¡çĲĨåĴĮ": 8501,
      "åĪĽéĢłåĬĽ": 8502,
      "åı¯ä»¥å¸®åĬ©ä½ł": 8503,
      "ĠæĢ»": 8504,
      "æīĭæľ¯": 8505,
      "åħ±åĴĮ": 8506,
      "èĬĤçĤ¹": 8507,
      "ç¼ĸçłģ": 8508,
      "ä¹ĥ": 8509,
      "å½±åĥı": 8510,
      "çĪ±åĽłæĸ¯åĿ¦": 8511,
      "å¤įåĲĪ": 8512,
      "éĺ¿å°Ķ": 8513,
      "è¿ĽåĪ¶": 8514,
      "è¿Ļç¯ĩæĸĩç«łä¸Ń": 8515,
      "å¡«ç©º": 8516,
      "æĹłèģĬ": 8517,
      "ç²ĺ": 8518,
      "éĹªèĢĢ": 8519,
      "è¿Ń": 8520,
      "æī¾åĽŀ": 8521,
      "çĻ½èī²çļĦ": 8522,
      "æŀľå®ŀ": 8523,
      "åķĨåĵģæııè¿°": 8524,
      "ä½łåı¯ä»¥åľ¨": 8525,
      "åĲ¸å¼ķåĬĽ": 8526,
      "86": 8527,
      "æĺ¯ä¸Ģæľ¬": 8528,
      "å°¼äºļå·ŀ": 8529,
      "to": 8530,
      "å°ıæĺİè¿ĺåī©": 8531,
      "åıĸä»£": 8532,
      "ä¹Ĳè§Ĥ": 8533,
      "éľĢæ±ĤåĴĮ": 8534,
      "è«ĸ": 8535,
      "ä¸ªå°ı": 8536,
      "ound": 8537,
      "çļĦçĹħ": 8538,
      "å¾ĴæŃ¥": 8539,
      "è¨Ńè¨Ī": 8540,
      "Ġfollow": 8541,
      "åµ": 8542,
      "æľīåĩłä¸ª": 8543,
      "çļĦæį": 8544,
      "æĪĳä»¬ä¼ļ": 8545,
      "è®¡ç®Ĺæľºç³»ç»Ł": 8546,
      "åĴĸåķ¡é¦Ĩ": 8547,
      "çļĦæĻ®": 8548,
      "åĬŀæ³ķ": 8549,
      "åĩłä½ķ": 8550,
      "æĭĵå±ķ": 8551,
      "ï¼ĳ": 8552,
      "éĢļé¡º": 8553,
      "éħ¥": 8554,
      "ä»Ĭå¤©çļĦ": 8555,
      "éĹ¨åı£": 8556,
      "è¿ľç¦»": 8557,
      "å©ļå§»": 8558,
      "å¤ªç©ºæİ¢ç´¢": 8559,
      "åı¯è§ĨåĮĸ": 8560,
      "åľ¨è¯¥": 8561,
      "Ġmore": 8562,
      "èŃĺ": 8563,
      "çļĦæĦŁæĥħ": 8564,
      "NL": 8565,
      "Ġfriend": 8566,
      "ç»ĻæĪĳè®²ä¸Ģä¸ª": 8567,
      "åĩºçİ°çļĦ": 8568,
      "æŃ¦åĻ¨": 8569,
      "è¿ĻæĿ¡": 8570,
      "è¡Įèµ°": 8571,
      "çī¹æľĹ": 8572,
      "éĢīä¸¾": 8573,
      "åıĸæ¶Ī": 8574,
      "åĲĳä¸Ĭ": 8575,
      "èģĶåĲĪåĽ½": 8576,
      "IT": 8577,
      "äººéĹ´": 8578,
      "æĮ«": 8579,
      "çľĭè§ģ": 8580,
      "ç½ĳé¡µ": 8581,
      "åĵģçīĮçļĦ": 8582,
      "èķ¾": 8583,
      "ä¸ŃçļĦä¸Ģä¸ª": 8584,
      "æ¥µ": 8585,
      "çļĦçŁŃè¯Ń": 8586,
      "ç¾½æ¯Ľ": 8587,
      "è´·æ¬¾": 8588,
      "mith": 8589,
      "èģ²": 8590,
      "çģ¿": 8591,
      "ä¸Ģå®ļä¼ļ": 8592,
      "çļĦæľĢæĸ°": 8593,
      "çľŁçļĦå¾Ī": 8594,
      "Ġadd": 8595,
      "çļĦéĤ£": 8596,
      "æµ©": 8597,
      "åħ³å¿ĥ": 8598,
      "éĿĻéĿĻ": 8599,
      "è¬": 8600,
      "éĢ¢": 8601,
      "æĿ¥æııè¿°": 8602,
      "å®ĥå°Ĩ": 8603,
      "æ²Ĳ": 8604,
      "åŃĹä½ĵ": 8605,
      "éĢīçĶ¨": 8606,
      "çģ«å±±": 8607,
      "Tæģ¤": 8608,
      "æĪĳä»¬çŁ¥éģĵ": 8609,
      "å®ĿçŁ³": 8610,
      "ç²ĴåŃĲ": 8611,
      "ç¿ħèĨĢ": 8612,
      "åĲįåįķ": 8613,
      "æİ¨è¿Ľ": 8614,
      "æ¸©åĴĮ": 8615,
      "åĳ¨äºĶ": 8616,
      "Ġname": 8617,
      "æıĲé«ĺäºĨ": 8618,
      "èľ¡": 8619,
      "èª¿": 8620,
      "æĪĳåĽ½": 8621,
      "èĬ±çĶŁ": 8622,
      "ç¬¬ä¸īä¸ª": 8623,
      "ition": 8624,
      "åįıåĬ©": 8625,
      "æ°´æĺŁ": 8626,
      "ç»Ļå®ļæĸĩæľ¬": 8627,
      "åĨ·åį´": 8628,
      "ellig": 8629,
      "iss": 8630,
      "ç¥Ī": 8631,
      "çĶ»ä½ľ": 8632,
      "åıĳçĶŁçļĦ": 8633,
      "autiful": 8634,
      "æĿ¥å¸®åĬ©": 8635,
      "åķĨåľº": 8636,
      "èĨı": 8637,
      "æī¹è¯Ħ": 8638,
      "72": 8639,
      "ai": 8640,
      "å°ıæĺİä¹°": 8641,
      "åįģè¶³": 8642,
      "ĠSentence": 8643,
      "çĪĨåıĳ": 8644,
      "äººæ°ĳå¸ģ": 8645,
      "åħīåĲĪä½ľçĶ¨": 8646,
      "çŁĽçĽ¾": 8647,
      "èĬ±åįī": 8648,
      "è¾¾æĪĲ": 8649,
      "äººå·¥æĻºèĥ½åĴĮ": 8650,
      "æĪĺèĥľ": 8651,
      "æĭ¿åĩº": 8652,
      "æ··åĲĪçī©": 8653,
      "éĹ·": 8654,
      "è§£æĸ¹ç¨ĭ": 8655,
      "éĩĳèī²": 8656,
      "çģ«çģ¾": 8657,
      "éĺ¿éĩĮ": 8658,
      "å»ºç«ĭä¸Ģä¸ª": 8659,
      "01": 8660,
      "ĠæīĢä»¥": 8661,
      "æĪĳæĿ¥": 8662,
      "æĹ¥çĽĬ": 8663,
      "ç¼ł": 8664,
      "ä¸ĢäºĽäºº": 8665,
      "ç«ĭæĸ¹": 8666,
      "æĺ¥åŃ£": 8667,
      "à¤°": 8668,
      "åħ´è¶£çĪ±å¥½": 8669,
      "æŁłæª¬æ±ģ": 8670,
      "åĬłåĪ©": 8671,
      "æĺ¯åĲ¦æŃ£ç¡®": 8672,
      "ìĿ": 8673,
      "å¸ĺ": 8674,
      "æľĢåıĹæ¬¢è¿İçļĦ": 8675,
      "çĤ¹ç¼Ģ": 8676,
      "èĩ³äºİ": 8677,
      "åıįå°Ħ": 8678,
      "æ¯ĶèµĽçļĦ": 8679,
      "é¥®é£Łä¹łæĥ¯": 8680,
      "åİŁæĿ¥æľī": 8681,
      "éļª": 8682,
      "åģļä¸Ģä¸ª": 8683,
      "åŁºéĩĳ": 8684,
      "é»ĳèī²çļĦ": 8685,
      "è°¨æħİ": 8686,
      "æ¸łéģĵ": 8687,
      "æī¶": 8688,
      "éĿŀå¸¸æľīè¶£": 8689,
      "èĢĲå¿ĥ": 8690,
      "å¼ķè¿°": 8691,
      "çºªå½ķ": 8692,
      "å¼¥æ¼«": 8693,
      "ä»ĸäººçļĦ": 8694,
      "çī©æµģ": 8695,
      "ond": 8696,
      "å±ķè§Ī": 8697,
      "æľįåĬ¡åĻ¨": 8698,
      "ä¼ĺåħĪçº§": 8699,
      "æĻĭ": 8700,
      "éĶĲ": 8701,
      "åıĺä¸º": 8702,
      "æķĪåºĶ": 8703,
      "å·¥ä½ľæķĪçİĩ": 8704,
      "æł¹æį®è¿Ļä¸ª": 8705,
      "éĩįè¦ģæĢ§": 8706,
      "å¯Ĩæĸ¯": 8707,
      "é¤ĲåİħçļĦ": 8708,
      "è¿Ļæĺ¯ä¸Ģæ®µ": 8709,
      "ä¸įåı¯æĪĸç¼º": 8710,
      "å¤ªéĺ³ç³»ä¸Ń": 8711,
      "çļĦæ¬¡æķ°": 8712,
      "SS": 8713,
      "na": 8714,
      "ren": 8715,
      "æĭ¥åłµ": 8716,
      "èµŀæī¬": 8717,
      "çļĦçĻ½": 8718,
      "æĹģè¾¹": 8719,
      "ä¸ªå°ıæĹ¶": 8720,
      "å§ĳ": 8721,
      "ä¸Ńæĸĩæĸĩæľ¬": 8722,
      "å¥¶æ³¡": 8723,
      "å¸ĤåľºèĲ¥éĶĢ": 8724,
      "éĿĴå°ĳå¹´": 8725,
      "è¿ĺåī©ä¸ĭå¤ļå°ĳ": 8726,
      "ious": 8727,
      "å®ħ": 8728,
      "åĴĮå¯¹": 8729,
      "åı¯åı¯": 8730,
      "èµŀç¾İ": 8731,
      "æħ¢æħ¢åľ°": 8732,
      "åİŁä»·": 8733,
      "èĩªçĦ¶çļĦ": 8734,
      "å±±æ°´": 8735,
      "é¦ĻæĸĻ": 8736,
      "éĿ¢ä¸´çĿĢ": 8737,
      "èĩªåĬ¨é©¾é©¶æ±½è½¦": 8738,
      "è±ļ": 8739,
      "å®ĮæĪĲä»»åĬ¡": 8740,
      "å¸ĮæľĽè¿ĻäºĽ": 8741,
      "çĶµåŃĲäº§åĵģ": 8742,
      "é¢ĳç¹ģ": 8743,
      "ç¹ģæ®ĸ": 8744,
      "ä¸Ģå¹ħ": 8745,
      "è¿Ľè¡Įè®¡ç®Ĺ": 8746,
      "ouse": 8747,
      "Ġcar": 8748,
      "è§Ĩè§īæķĪæŀľ": 8749,
      "çļĦç»ıåİĨ": 8750,
      "ä¸įåľ¨": 8751,
      "åħ³èģĶ": 8752,
      "åºĶå½ĵ": 8753,
      "æ²¡æľīæıĲä¾Ľ": 8754,
      "Ð´": 8755,
      "ãĢĤãĢĤ": 8756,
      "åı¯ä»¥ä½¿": 8757,
      "æ³¼": 8758,
      "è¿ĺä¼ļ": 8759,
      "èĪĮ": 8760,
      "å¯¹æĸĩæľ¬éĶĻè¯¯è¿Ľè¡Įä¿®æĶ¹": 8761,
      "Ġword": 8762,
      "å¤ĦçĲĨåĻ¨": 8763,
      "ĠĠĠĠ": 8764,
      "åĵĪåĵĪ": 8765,
      "å°ıæĺİå®¶éĩĮæľī": 8766,
      "Ġneed": 8767,
      "åĴĮç®¡çĲĨ": 8768,
      "çľī": 8769,
      "Ġbr": 8770,
      "Ġinter": 8771,
      "åİĨåı²ä¸ĬæľĢ": 8772,
      "ä»İä»¥ä¸ĭæĸĩæľ¬ä¸ŃæıĲåıĸ": 8773,
      "åĲ¯ç¤º": 8774,
      "æ¸©å®¤æ°Ķä½ĵæİĴæĶ¾": 8775,
      "çļĦå¿ĥ": 8776,
      "çºĮ": 8777,
      "åīįè¡Į": 8778,
      "ç¨ĭåºıåĳĺ": 8779,
      "næĸĩæľ¬": 8780,
      "åĬ²": 8781,
      "å¸Ĩ": 8782,
      "æĹłéľĢ": 8783,
      "æĮīéĴ®": 8784,
      "çģ«éĶħ": 8785,
      "Ġyes": 8786,
      "æł¹æį®ä»¥ä¸ĭè¾ĵåħ¥": 8787,
      "è¸¢": 8788,
      "ny": 8789,
      "Ãł": 8790,
      "è¦ĸ": 8791,
      "ç®Ģæĺİ": 8792,
      "èħĶ": 8793,
      "è·ĳäºĨ": 8794,
      "ather": 8795,
      "Ġdif": 8796,
      "è¿ĳä¹īè¯į": 8797,
      "uy": 8798,
      "åĪĨä¹ĭä¸Ģ": 8799,
      "æĪĸæľįåĬ¡": 8800,
      "çĪ±å¥½èĢħ": 8801,
      "çļĦæĳĦåħ¥": 8802,
      "åħĦå¼Ł": 8803,
      "\")": 8804,
      "co": 8805,
      "pan": 8806,
      "ä¸ºæĪĳä»¬": 8807,
      "å¤įåĪ¶": 8808,
      "ents": 8809,
      "åĦª": 8810,
      "ä¼łæĦŁåĻ¨": 8811,
      "æµģæ°´": 8812,
      "èĩ³åħ³éĩįè¦ģ": 8813,
      "áº": 8814,
      "Ġ2021": 8815,
      "åĴĮæĪĳ": 8816,
      "ä»¥ä¸ĬçļĦ": 8817,
      "æĽ¹": 8818,
      "å¹¶å°Ĩå®ĥä»¬": 8819,
      "èĢĮåıĪ": 8820,
      "æĹłæ¯Ķ": 8821,
      "æİ¥æĶ¶": 8822,
      "å®½åº¦": 8823,
      "å¼ĢæĶ¾å¼ı": 8824,
      "æķ¸æĵļ": 8825,
      "çī¢": 8826,
      "ä¸įçĶ¨": 8827,
      "æļ®": 8828,
      "æĶ¶èİ·": 8829,
      "è¢«åĳĬ": 8830,
      "æĬĬå®ĥ": 8831,
      "æķ°åŃĹåĪĹè¡¨": 8832,
      "å®ŀçİ°äºĨ": 8833,
      "ä¸Ģå®ļè¦ģ": 8834,
      "åĲŀ": 8835,
      "æłı": 8836,
      "è´º": 8837,
      "ç»ĻæĪĳä»¬": 8838,
      "æ´»åĭķ": 8839,
      "ç¯Ģ": 8840,
      "åĥ¹": 8841,
      "ä¸½èİİ": 8842,
      "æľīæīĢå¸®åĬ©": 8843,
      "çļĦæ¼Ķè®²": 8844,
      "å¸Ĳ": 8845,
      "çİ°çĬ¶": 8846,
      "ä¹Łè®¸": 8847,
      "åħ¬å¯ĵ": 8848,
      "çĽ¸æľº": 8849,
      "å¸®å¿Ļ": 8850,
      "éĽĨåĽ¢": 8851,
      "æĸĩåĮĸçļĦ": 8852,
      "èª°": 8853,
      "å·§åħĭåĬĽèĽĭç³ķ": 8854,
      "à¥į": 8855,
      "ĠçĮ«": 8856,
      "ä¸ĳ": 8857,
      "å¤©æĸĩåŃ¦": 8858,
      "ä»İæŃ¤": 8859,
      "ç¯ĩå°ıè¯´": 8860,
      "æ·±åıĹ": 8861,
      "Ġ36": 8862,
      "èĽĻ": 8863,
      "ãĢĤ\"\"": 8864,
      "åŁĥåıĬ": 8865,
      "åįĹæŀģæ´²": 8866,
      "åĴĮä¸ĢäºĽ": 8867,
      "åĬ¨çī©åĽŃ": 8868,
      "ä¼ĺç¾İçļĦ": 8869,
      "äººä»¬åı¯ä»¥": 8870,
      "èĥ½å¾ĹåĪ°": 8871,
      "è¯·æııè¿°": 8872,
      "erry": 8873,
      "éĤ£å¦Ĥæŀľ": 8874,
      "èĥ½å¤Łå¸®åĬ©": 8875,
      "å¿ħå¤ĩ": 8876,
      "å¸®æĪĳæĬĬè¿Ļåı¥è¯Ŀ": 8877,
      "ä¼ĺè´¨çļĦ": 8878,
      "çļĦæĬ¥åĳĬ": 8879,
      "Script": 8880,
      "åĲ¾": 8881,
      "ä¸ªåŃĹç¬¦": 8882,
      "ä¹Łåı¯èĥ½": 8883,
      "ä¹ĲéĺŁ": 8884,
      "å¥³å£«": 8885,
      "æłĳæŀĹ": 8886,
      "la": 8887,
      "ä»¥åĨħ": 8888,
      "åįİä¸½": 8889,
      "ä»ĺåĩº": 8890,
      "44": 8891,
      "ä¸Ģæľ¬ä¹¦": 8892,
      "ä¸įåĸľæ¬¢": 8893,
      "åīĩ": 8894,
      "éľĢè¦ģèĢĥèĻĳ": 8895,
      "éĿŀå¸¸åĸľæ¬¢": 8896,
      "æīĵçł´": 8897,
      "ely": 8898,
      "èµ°è¿Ľ": 8899,
      "åĽ°å¢ĥ": 8900,
      "çļĦå¤©æ°ĶæĥħåĨµ": 8901,
      "å²©çŁ³": 8902,
      "the": 8903,
      "ç©ºæł¼": 8904,
      "igh": 8905,
      "å¤©ç©ºä¸Ń": 8906,
      "å°Ĩä¸ĭéĿ¢åı¥åŃĲ": 8907,
      "åľ£æ¯įéĻ¢": 8908,
      "åı²å¯Ĩæĸ¯": 8909,
      "ç»ĻæĪĳä¸ĢäºĽ": 8910,
      "åģĩæľŁ": 8911,
      "åĿĲæłĩ": 8912,
      "éĢĲæŃ¥": 8913,
      "çļĦæ²¹": 8914,
      "å°ıæĺİæīĭä¸Ĭæľī": 8915,
      "à¥ĩ": 8916,
      "çī©èģĶç½ĳ": 8917,
      "æľĪåħī": 8918,
      "çĽ´è§Ĵ": 8919,
      "ponse": 8920,
      "hu": 8921,
      "çļĦåħ³éĶ®è¯į": 8922,
      "çļĦäºĭå®ŀ": 8923,
      "Ġtra": 8924,
      "\":": 8925,
      "æľĢèĳĹåĲįçļĦ": 8926,
      "åıĹä¼Ĺ": 8927,
      "åºĶè¯¥å¾ĹåĪ°": 8928,
      "æ¤İ": 8929,
      "å½¢æĪĲäºĨ": 8930,
      "æĦŁè°¢æĤ¨": 8931,
      "åĲ¯åĬ¨": 8932,
      "54": 8933,
      "åĿª": 8934,
      "å¥³äºº": 8935,
      "IMD": 8936,
      "æµ¦": 8937,
      "å¹¶æł¹æį®": 8938,
      "åĵģåĳ³": 8939,
      "onjour": 8940,
      "ors": 8941,
      "æł·å¼ı": 8942,
      "äºĨä¸Ģç³»åĪĹ": 8943,
      "æĺ¥é£İ": 8944,
      "èģļç±»": 8945,
      "å¯¹åħ¶è¿Ľè¡Į": 8946,
      "éĶĪ": 8947,
      "æĺ¯ä¸ĢåĢĭ": 8948,
      "åįķåħĥ": 8949,
      "ä»Ĭå¤©æĹ©ä¸Ĭ": 8950,
      "ä¹ĺå®¢": 8951,
      "æĸ°é²ľçļĦ": 8952,
      "ç¢Ĺä¸Ń": 8953,
      "æ¢¨åŃĲ": 8954,
      "æĿ¥è¡¨è¾¾": 8955,
      "å¹¶ä¸İ": 8956,
      "è¿ĽçĲĥ": 8957,
      "èĬ½": 8958,
      "æ¹ĸæ³Ĭ": 8959,
      "uit": 8960,
      "ä½ĵåŀĭ": 8961,
      "Ġlanguage": 8962,
      "ä¸»è¦ģæĺ¯": 8963,
      "ç§¯æŀģçļĦæĥħæĦŁ": 8964,
      "æ¯Ľè¡£": 8965,
      "Ġwhich": 8966,
      "cat": 8967,
      "ä¸Ĭæ¶¨": 8968,
      "æĽ´å¤§": 8969,
      "ç»Ļå®ļä»¥ä¸ĭ": 8970,
      "orm": 8971,
      "çķĮéĿ¢": 8972,
      "éĩįè¦ģçļĦä½ľçĶ¨": 8973,
      "ç´§å¯Ĩ": 8974,
      "çļĦçĤ¹": 8975,
      "å®ĥä¼ļ": 8976,
      "ä»İæľª": 8977,
      "ä½ķæĹ¶": 8978,
      "Ġdon": 8979,
      "æĪıåī§": 8980,
      "æģĲæĥ§": 8981,
      "æľĢå°ıåĢ¼": 8982,
      "é©±åĬ¨": 8983,
      "é«ĺåĵģè´¨": 8984,
      "æ¯ıä¸ªåĲĮåŃ¦": 8985,
      "è·¯ç¨ĭ": 8986,
      "ä¾¿å®ľ": 8987,
      "æ°¸æģĴ": 8988,
      "çĶ¨æ³ķ": 8989,
      "éģ¸": 8990,
      "éģĬ": 8991,
      "çĶ»å®¶": 8992,
      "çļĦæ²³": 8993,
      "æī¿æĭħ": 8994,
      "Ġinto": 8995,
      "çļĦçĭ¬çī¹": 8996,
      "æľīæ°§è¿ĲåĬ¨": 8997,
      "æĸĩä¸Ń": 8998,
      "è¯įæĢ§": 8999,
      "ä¹ĭç¾İ": 9000,
      "ä¹Łæĺ¯ä¸Ģä¸ª": 9001,
      "å°ıæĺİä¸Ģåħ±": 9002,
      "æ®¿": 9003,
      "æ¸¸è§Ī": 9004,
      "å¨ĥ": 9005,
      "æĬĳéĥģ": 9006,
      "son": 9007,
      "æĺ¯ç§¯æŀģçļĦ": 9008,
      "å¤§åİ¦": 9009,
      "éĥ½è¢«": 9010,
      "elle": 9011,
      "æ¢µ": 9012,
      "åħ¨çĲĥæ°ĶåĢĻåıĺåĮĸ": 9013,
      "æ¤įçī©çļĦ": 9014,
      "è©±": 9015,
      "åı¯ä»¥è¢«å½Ĵç±»ä¸º": 9016,
      "æ¯Ķå°ıæĺİå¤ļ": 9017,
      "å¤įä»ĩèĢħ": 9018,
      "ä»¥èİ·åıĸ": 9019,
      "å¤§èĴľ": 9020,
      "Ġâī": 9021,
      "åĨ»": 9022,
      "è¯·æıĲåıĸ": 9023,
      "è¯·ç»ŃåĨĻ": 9024,
      "ä»ĸä»¬ä¸Ģèµ·": 9025,
      "æĪĳçļĦå¿ĥ": 9026,
      "Ġthere": 9027,
      "çĶľèľľ": 9028,
      "GB": 9029,
      "Ġå¹´": 9030,
      "è¡¨æĥħ": 9031,
      "è¿ĽåĮĸ": 9032,
      "å¼Ģè½¦": 9033,
      "è®©è¯»èĢħ": 9034,
      "è¾¹ç¼ĺ": 9035,
      "æĵįä½ľç³»ç»Ł": 9036,
      "åĶĲä»£": 9037,
      "ä»£åħ¥åħ¬å¼ı": 9038,
      "çļĦä»£çłģ": 9039,
      "ä¸Ģè¾¹": 9040,
      "çĶŁæ¶¯": 9041,
      "ä¸¤åı¥è¯Ŀ": 9042,
      "çİĩåĴĮ": 9043,
      "ä¸»æĹ¨": 9044,
      "æĺ¯ä¸Ģåº§": 9045,
      "æĹ¶éĹ´åĨħ": 9046,
      "é¢ĨåħĪ": 9047,
      "ä¸»é¢ĺåĴĮ": 9048,
      "åİŁåĽłæĺ¯": 9049,
      "æ´Ĺè¡£": 9050,
      "æ±īåŃĹ": 9051,
      "æĸ·": 9052,
      "éĺ¿åĩ¡": 9053,
      "èĩªçĦ¶è¯Ńè¨Ģå¤ĦçĲĨæĬĢæľ¯": 9054,
      "åıĻè¿°": 9055,
      "çļĦä¸ī": 9056,
      "çļĦéĿ¢ç§¯": 9057,
      "çİ²": 9058,
      "ä½łæľī": 9059,
      "æıĲä¾ĽçļĦä¿¡æģ¯": 9060,
      "æīĭæĮĩ": 9061,
      "æ¤°": 9062,
      "æĭ¿éĵģ": 9063,
      "é³Ħ": 9064,
      "éĺ¿åĩ¡è¾¾": 9065,
      "Ġ.": 9066,
      "åľĸ": 9067,
      "æķħä¹¡": 9068,
      "ä¸ĩéĩĮ": 9069,
      "à¸²": 9070,
      "ç»ıåİĨäºĨ": 9071,
      "å°ıæĺİæīĭéĩĮ": 9072,
      "åģıè§ģ": 9073,
      "åĬłåĪ©ç¦ı": 9074,
      "ç»ļ": 9075,
      "å¼Ħ": 9076,
      "ä½łæľĢåĸľæ¬¢çļĦ": 9077,
      "å¤ļé¡¹": 9078,
      "å·¥åİĤ": 9079,
      "ç¥¥": 9080,
      "äº§çĶŁçļĦ": 9081,
      "ä»¥ä¸ĭåı¥åŃĲè¿Ľè¡Į": 9082,
      "éª¨å¤´": 9083,
      "ABC": 9084,
      "çļĦæ±½è½¦": 9085,
      "çļĦæĹ¶åħī": 9086,
      "å¯¼èĪª": 9087,
      "å¹³åĿĩåĪĨæĪĲ": 9088,
      "å°ıåįİæľī": 9089,
      "å¹¶è¾ĵåĩºç»ĵæŀľ": 9090,
      "$ï¼Į": 9091,
      "//": 9092,
      "çļĦéĥ¨åĪĨ": 9093,
      "èĥĢ": 9094,
      "Ġ27": 9095,
      "èİ·èĥľ": 9096,
      "è¿·äºº": 9097,
      "æĿĳåºĦ": 9098,
      "åĲ¨": 9099,
      "åı¯çĶ¨äºİ": 9100,
      "æł¼åħ°": 9101,
      "éŁ³ä¹Ĳå®¶": 9102,
      "ä¸ªèĭ¹æŀľåĴĮ": 9103,
      "è¡¨çİ°åĩºèī²": 9104,
      "èĬ±è´¹äºĨ": 9105,
      "ä¼¯çī¹": 9106,
      "å°ıåĪļ": 9107,
      "ä½łåĸľæ¬¢": 9108,
      "éĩıåĴĮ": 9109,
      "Ġlist": 9110,
      "åĥıæĺ¯": 9111,
      "å¤±åİ»äºĨ": 9112,
      "è»į": 9113,
      "ĠæĪĳä»¬": 9114,
      "çļĦèĥĮæĻ¯": 9115,
      "ç©´": 9116,
      "ç¼Ŀ": 9117,
      "æķħå®«": 9118,
      "æīĢæľīäºº": 9119,
      "çıŃéĩĮæľī": 9120,
      "ä¸Ģå±Ĥ": 9121,
      "ä¸įæĥ³": 9122,
      "å¾ĹäºĨ": 9123,
      "è¿ĲåĬ¨éŀĭ": 9124,
      "æĹ¥å¸¸çĶŁæ´»ä¸Ń": 9125,
      "çļĦæŃĮ": 9126,
      "è¿Ļä¹Łæĺ¯": 9127,
      "å¥ī": 9128,
      "çĪª": 9129,
      "åİŁåĪĽ": 9130,
      "åĶ®ä»·": 9131,
      "æĭĴç»Ŀ": 9132,
      "><": 9133,
      "ä¸¤æ¬¡": 9134,
      "èĬ±çĵ£": 9135,
      "ä»ĬæĹ¥": 9136,
      "Ġmake": 9137,
      "çļĦæĢ»åĴĮ": 9138,
      "It": 9139,
      "åĴĮäººç±»": 9140,
      "åı¯æĺ¯": 9141,
      "çļĦæ¹": 9142,
      "èĬ±åĦ¿": 9143,
      "åİŁæĸĻ": 9144,
      "çİĭäºĶ": 9145,
      "CT": 9146,
      "åĴĮä¿¡æģ¯": 9147,
      "äºĨä»ĸ": 9148,
      "æĦŁäºº": 9149,
      "æ¦ľ": 9150,
      "äº«åıĹçĿĢ": 9151,
      "å¤įä»ĩèĢħèģĶçĽŁ": 9152,
      "Ġpo": 9153,
      "å½©èĻ¹": 9154,
      "ç¼ĸåĨĻä¸Ģæ®µ": 9155,
      "ä¼°è®¡": 9156,
      "åıªé¸Ł": 9157,
      "æĭ¬åı·": 9158,
      "ä¸ĩäºº": 9159,
      "èĬ¹": 9160,
      "åĲįçļĦ": 9161,
      "ä¿¡å¿µ": 9162,
      "æĪĲä¸ºä¸ĢåĲį": 9163,
      "è»Ĭ": 9164,
      "Me": 9165,
      "å®¶ä¸Ń": 9166,
      "æĹ¥åŃĲ": 9167,
      "å¿ĹæĦ¿": 9168,
      "çī¹æ®ĬçļĦ": 9169,
      "çļĦç½ĳç»ľ": 9170,
      "ÛĮ": 9171,
      "ä»ĵ": 9172,
      "åħ¬ä¸»": 9173,
      "èĤ¿": 9174,
      "æ¯ıä¸ªäººçļĦ": 9175,
      "äººå·¥æĻºèĥ½çļĦåıĳå±ķ": 9176,
      "___": 9177,
      "æ³¢éĤ£": 9178,
      "æĩĪ": 9179,
      "æ¯ıå¤©æĹ©ä¸Ĭ": 9180,
      "åĴĮåģ¥åº·": 9181,
      "å®ĥæĺ¯ä¸Ģä¸ª": 9182,
      "è¿ĩæĿ¥": 9183,
      "é¥¿": 9184,
      "å¹²æĹ±": 9185,
      "å§Ķåĳĺ": 9186,
      "èıłèĲĿ": 9187,
      "æ³¢éĤ£å¥ĳ": 9188,
      "åĴĮç»ıæµİ": 9189,
      "ool": 9190,
      "å³¡": 9191,
      "å¿ĥèĦıçĹħ": 9192,
      "æĸĲæ³¢éĤ£å¥ĳ": 9193,
      "çļĦéķ¿": 9194,
      "åİĮ": 9195,
      "æĦ¤": 9196,
      "oud": 9197,
      "è±ªåįİ": 9198,
      "Ñĭ": 9199,
      "ĠZ": 9200,
      "æĪĳæĺ¯ä¸Ģä¸ª": 9201,
      "æĹ·": 9202,
      "ä¼ª": 9203,
      "åĪĨç¦»": 9204,
      "åĲİéĿ¢": 9205,
      "è¾¾åĪ°äºĨ": 9206,
      "åĨįåĬłä¸Ĭ": 9207,
      "è©¦": 9208,
      "Ġmov": 9209,
      "è¯±": 9210,
      "ä¸ĢæĶ¯": 9211,
      "ä¸Ģéģį": 9212,
      "å¹«": 9213,
      "å¤´çĹĽ": 9214,
      "ä½ıå®¿": 9215,
      "æ¯Ķå°ıçº¢å¤ļ": 9216,
      "çļĦä¸¤ä¸ª": 9217,
      "èļĬ": 9218,
      "ä¹Ķå¸ĥæĸ¯": 9219,
      "åĬłæĭ¿å¤§": 9220,
      "ä¸Ģç¾¤": 9221,
      "åĴ¸": 9222,
      "éĢ¼": 9223,
      "è¿Ľç¨ĭ": 9224,
      "å®ĩå®Ļä¸Ń": 9225,
      "åĲĦä¸ªé¢ĨåŁŁ": 9226,
      "çļĦçĶŁçī©": 9227,
      "åľ¨åŃ¦æł¡": 9228,
      "ä¾ĭåŃĲä¸Ń": 9229,
      "Î±": 9230,
      "æŃ·": 9231,
      "å¾Īå®¹æĺĵ": 9232,
      "æľĪçļĦ": 9233,
      "èĩªçĦ¶çİ¯å¢ĥ": 9234,
      "å¦Ĥæŀľä½łæĥ³è¦ģ": 9235,
      "åį°èĬ±": 9236,
      "ç¡¬ä»¶": 9237,
      "ä¼ļä¸Ĭ": 9238,
      "Ġpart": 9239,
      "æķ°åŃĹæĺ¯": 9240,
      "ä½ľä¸ºä¸ĢåĲį": 9241,
      "éĶ»çĤ¼èº«ä½ĵ": 9242,
      "çļĦæģĲ": 9243,
      "å¾Īæľīè¶£": 9244,
      "åĸĿåĴĸåķ¡": 9245,
      "è¿Ļé¦ĸæŃĮæĽ²": 9246,
      "å±Ī": 9247,
      "çŁ®": 9248,
      "éłĺ": 9249,
      "å¯Ĥå¯ŀ": 9250,
      "ĨĴ": 9251,
      "åı¯çŁ¥": 9252,
      "æĦŁæģ©": 9253,
      "è§£å¾Ĺ": 9254,
      "reak": 9255,
      "çŁŃæļĤ": 9256,
      "å¸Ĥåľºä¸Ĭ": 9257,
      "çµĦ": 9258,
      "æĬķèµĦèĢħ": 9259,
      "åĴĮæĬĢèĥ½": 9260,
      "è¡Įç¨ĭ": 9261,
      "è¯·è®¡ç®Ĺ": 9262,
      "ä¹Łè¦ģ": 9263,
      "çĽ´çº¿": 9264,
[...]
